[PAD]
[EOS]
[UNK]
[CLS]
[SEP]
[MASK]
a
w
so
na
z
je
za
zo
do
tež
##,
wo
der
bě
to
die
und
su
k
ze
po
W
jako
kaž
wot
we
pak
in
hač
sej
-
jeho
hižo
hišće
Na
tak
tym
abo
při
den
ma
ale
mjez
##a
–
wón
jenož
des
ist
das
Po
Z
běchu
kiž
kotrež
Die
serbskich
##e
lěta
für
A
kotryž
mit
swoje
by
njeje
pola
zu
##u
zaso
před
To
přez
pod
sich
im
dale
dr.
##:
von
tam
dźensa
jara
dem
hdyž
auf
serbske
Za
lět
wjele
wosebje
toho
nicht
swojim
kotraž
Tež
jich
bu
ein
eine
Das
serbskeje
nam
lěće
Serbow
štož
dokelž
nas
sie
dźěći
Wón
dnja
serbskeho
##i
##m
nětko
Der
Tak
tu
běše
wjace
potom
maja
##)
druhim
Jan
Při
jeje
dass
##y
serbski
tutym
hat
hdźež
swoju
sobu
přećiwo
tomu
auch
kotřiž
drje
kak
wona
ich
čas
měješe
wir
Łužicy
wšak
swój
swojich
jemu
něšto
tola
budźe
samo
runje
##ch
sym
smy
swojeho
farar
Sie
něhdźe
aus
raz
bjez
##je
Jako
mi
dźěło
sind
Ale
swojej
nic
prěni
es
přeco
dźeń
tute
derje
wčera
ludźi
serbskej
als
dla
an
##j
Wot
bychu
Ich
to,
##"
##“
lětach
##''
lěto
Serbskeho
##-
stajnje
času
000
nim
přikład
chce
sorbischen
rady
tohorunja
cyle
1.
znowa
haben
bóle
wšěch
ju
kotrymž
serbskim
Domowiny
K
er
kóždy
Nimo
cyrkwi
nimale
##n
##;
Budyšinje
dźěła
Jana
Wo
##ho
zum
lětsa
nach
móže
Serbja
Jurij
žiwjenje
serbsku
##“,
nich
##ej
tutón
nowe
pozdźišo
předewšěm
wird
Hdyž
We
nad
Je
wězo
nimo
cyrkwje
Domowina
Wir
J.
sam
šule
towarstwa
ani
dotal
tym,
tehdy
kotruž
dalše
zdobom
što
wšěm
tutej
Bóh
*
einen
über
zur
kotrejž
„
war
In
Tam
zhromadnje
wone
wie
eurow
rěč
druhich
je,
praji
lětami
sorbische
Hižo
njebě
někotre
tuž
wašnje
du
Serbskim
da
M.
Do
Ze
tajke
cyrkej
jedyn
kónc
oder
žiwjenja
Wona
2.
##om
předsyda
mějachu
jim
wšitcy
Serbski
tři
rjekny
Tuž
Budyšin
serbska
mje
njejsu
kóncu
ničo
być
mjeztym
##s
hakle
městno
werden
stej
kotrychž
serbsce
króć
tutoho
bei
druhe
mjenje
dyrbi
Mjez
so,
dosć
wšo
wulki
wšitke
am
ludźo
Jeho
1
wobłuku
uns
našeho
einer
##”
wječor
wokoło
/
rěči
časa
rěče
noch
swjateho
um
puć
nimi
swojeje
nowy
pjeć
Němskej
chcedźa
wsy
Tola
našich
njej
aber
20
mamy
Er
Foto:
měli
Serbach
dźěl
staj
skupina
njeho
naše
##a,
##”,
##o
tójšto
šuli
doma
Hač
3.
skupiny
scyła
dwě
chór
Zo
woni
njech
##en
noweho
towarstwo
prěnje
Tole
kotrehož
hnydom
tutych
wulke
steji
prěnim
lud
Tute
Budyskim
polu
dźesać
Kaž
ke
dny
biskop
vor
durch
wurde
strona
najprjedy
##mu
njedźelu
meje
jón
wšitkich
19.
stronje
města
naš
město
wotmě
Jahr
dalšich
4.
Im
jónu
dobre
Tohodla
Budyskeho
was
kultury
Kak
Wosebje
wšelakich
tón
knihi
Němskeje
domje
15
Serbske
tutu
mnohich
potajkim
dyrbješe
ihr
dołho
běhu
tuteje
program
Měrćin
##ow
ja
jej
dom
prezident
prof.
móža
##),
20.
słowa
našim
njedźelu,
Što
fararja
znajmjeńša
swojimi
##mi
třoch
tydźenja
sobotu
žiwjenju
sebi
Sprache
Pawoł
słuša
5.
pokaza
nur
Kinder
wšitko
einem
2010
Nětko
hromadźe
Serbska
septembra
swjedźeń
wosady
młodych
A.
jeno
Sorben
městnje
wšelake
puću
němskich
jedna
koncert
woprawdźe
skónčnje
domu
oktobra
předstaji
•
tole
Tu
.
2
jo
Serbskeje
bis
móhli
druhej
rěka
trochu
dźěle
junija
tuchwilu
štyri
zwjetša
loni
Dźensa
snano
dźě
8.
lědma
30
zdźěla
wšě
Dokelž
zwisku
měrca
##ć
nawodom
Před
6.
Jurja
##r
50
bórze
Dale
unter
alle
my
lětstotka
móhł
Es
nowych
habe
sowie
1945
strony
narodne
kulturu
žane
skerje
dalši
nastupajo
ihre
apryla
Maćicy
zawěsće
wulkej
někotrych
Benedikt
wšako
serbscy
Bautzen
10.
tule
wuwiće
spočatk
7.
18.
druhi
Tutón
mir
kann
mehr
procentow
##ja
wójnje
bych
biskopa
mnje
Štóž
dnju
Pawoła
napřećo
šěsć
Budyskej
##my
njeby
kemše
tohodla
Sorbischen
3
zwjazka
našej
Sym
Dr.
dwaj
Zdobom
našeje
So
Budyšina
nowembra
móžeše
12.
40
stawizny
januara
Wone
Božej
Bože
##eho
poda
mać
kulturne
měł
milionow
man
Mjeztym
Potom
wobraz
Was
być,
9.
ženje
temu
sobotu,
sehr
nowu
mało
schon
swójby
hry
był
byrnjež
wšědnje
zwjazkoweho
nowym
nadawk
jeničce
měsće
4
wulkim
narodnych
Serbam
##aj
dobry
prawje
zhromadne
15.
tajki
chětro
něhdy
str.
NDR
přetož
mjeno
XVI.
serbskimi
mnozy
mich
často
pomocu
móžemy
budu
wójny
dospołnje
wostanje
Beno
swjaty
Božu
10
narodneho
hosći
Woni
Jězus
nawoda
2005
awgusta
katolskich
druhdy
Michał
will
bychmy
,
rada
zarjadowanje
dósta
čłowjek
mam
młodostnych
können
sće
skutkowanje
##li
předsydstwa
hru
cyły
žadyn
poprawom
spěšnje
sebje
nan
sami
prašenja
Prěni
Pod
němskej
60
##",
šulerjow
pomoc
julija
kóžde
ći
sy
II.
kraja
wustajeńcy
wenn
Bena
mjenujcy
twórby
lěpje
sydom
ličba
wulku
decembra
Und
dieser
Runje
11.
dźensnišeho
##t
wažne
stawiznach
Drježdźanach
dyrbja
chcyše
16.
sta
husto
buchu
##'',
Mit
13.
soll
Ihr
februara
25
zwei
tydźeń
serbšćiny
dyrbjachu
25.
neue
dwěmaj
SLA
17.
##ych
nichtó
zetkanje
płaći
minister
##chu
zwjazk
se
knihu
měnjenju
telko
diesem
awtor
wieder
##ce
14
słowo
móžachu
Wjele
šulerjo
steješe
Ein
tuta
popołdnju
prjedy
mustwo
wulka
Pětr
zwonka
bamž
němske
čłonojo
Hakle
Boha
seine
jednym
městna
stawiznow
kónca
jedne
běštaj
blisko
wučer
přichodźe
wjacore
##ym
Wězo
zajim
młodźiny
B.
štó
njemóže
kraju
wjac
diese
Šołta
kóždeho
čłonow
přińdźe
mocy
heute
sejma
Praze
Delnjej
·
swěće
pjenjezy
běch
##.”
nima
Chrósćicach
mały
wuměłcow
swěta
projekt
Serbow,
kulturneho
14.
mj.
čimž
wšeho
móžeš
konferency
5
''
nocy
immer
Farar
min.
Sakskej
Bě
wobydlerjow
Něhdźe
dźak
wopyt
spočatka
wutrobnje
starši
ludoweho
hodźi
Menschen
##nje
wosadźe
syn
Sorbische
waren
te
vom
pjatk
metrow
kemšach
hier
Berlinje
zdźěli
muss
literatury
prěnjej
štyrjoch
Tuta
P.
(CDU)
wosom
někotři
500
30.
knize
kniha
dweju
podpěru
Arbeit
měło
##ka
Jenož
Für
Auf
Berlin
##u,
tajkich
porno
krajneho
##će
pokazuje
euch
wopyta
##še
wustajeńca
tele
Jahren
přećelow
Budyski
26.
Łužica
hewak
H.
zašłych
jasnje
##e,
bamža
200
šulu
narodneje
Marja
noweje
dźěćo
Ja
8
prašenje
cyłkownje
27.
resp.
jednej
hudźbu
beide
zarjadowanja
składnostnje
posledni
chóra
wobdźěli
mój
jeli
rano
chcu
Schüler
hosćo
17
swjateje
krajow
Jahre
Wšitcy
28.
muzeju
Wšako
knježerstwo
běštej
Sachsen
muž
eines
23.
21.
swjedźenju
sto
prěnich
młodostni
šula
wosta
rjad
pjenjez
žurli
zakładźe
pad
naša
trěbne
Dnja
přewšo
16
dźěćom
sein
24.
daloko
bě,
było,
22.
ist,
Pólskej
LND
sorbischer
dźe
dnjow
samsnym
njedawno
##w
Jakub
mnohe
kulturnym
Zeit
zdaću
křiž
Zwjazka
doniž
spěwy
Nawka
##ł
zjawnosći
Božeje
Kóždy
Hišće
18
prěnjeho
lětnika
bin
Pola
29.
swět
wosada
K.
němskeho
neuen
dalšim
Choćebuz
wosebity
nowej
swojemu
Smy
sem
kulturnych
předstaja
damit
cyłe
Nowy
změje
kotrejež
Lausitz
##ju
čłon
stolicy
gymnazija
lubosć
II
prawa
Serbskich
CDU
spočatku
zwischen
staršich
młody
keine
Přez
trjeba
měrje
rjane
instituta
,,
poł
Njech
Choćebuzu
zwurazni
sama
němski
posedźenju
naposledk
hdy
SPD
Lipsku
měła
mojim
chcemy
##eje
němsce
něchtó
maćerje
ewangelskich
##«
wosebite
nowa
jeju
bohužel
viele
zhromadźiznje
padźe
jednoho
cyrkwinski
toho,
ćežko
znaty
zajimcow
wody
l.
hrě
dobro
9
Štož
ludowe
hłownje
dnjach
čisło
Wie
tych
někak
druzy
žony
wróćo
spěw
hudźby
hdys
stron
müssen
ihm
druheho
Hornjej
Łužicy,
jednotliwych
Lětsa
Eine
Auch
1990
čehodla
starych
wjes
wuměłstwo
dort
Budyskeje
100
wědomje
našu
kóždym
praji,
poměrnje
Bulank
přichod
nami
Krawc
přinošk
Sakskeje
Du
hladajo
było
wulkeje
klětu
Kultur
Boža
Su
Bohu
Wjace
Arnošt
swětowej
ludźom
hinak
šulskeho
ludźi,
Nach
##cy
problemy
nasta
druhimi
Diese
towarstwow
Bjez
cyłej
Marko
nadawki
Michała
wjacorych
rjedźe
předsydstwo
Serbskej
Brězan
wšudźe
swójba
zahaji
mšu
kubłanje
jutře
swětoweje
programa
móhło
hatte
wob
welche
prezidenta
Jedyn
wsach
wrota
Předsyda
žiwy
ihrer
##na
słowjanskich
cyrkwinskeho
Měrćina
mějachmy
dwójce
domoj
wobrazy
dir
Njeje
muzeja
knjez
ihnen
ihn
holcy
dźěćimi
dźiwadło
Cyž
seiner
takle
13
młodźi
I.
##ne
zmysle
słowach
Delnjeje
Gott
2009
zajimcy
wollen
basnje
Stadt
19
podźěl
narodźi
skutkowanja
rjany
prěnja
Hornjeje
stare
předstajenje
nazhonjenja
dyrbimy
POSOŁ
Malink
KATOLSKI
##er
wulkich
słužby
małe
kulturny
knježerstwa
dokładnje
spěchowanje
Mnozy
80
srjedź
móc
wšitkim
viel
namaka
wuznam
nje
hesłom
etwas
dźěći,
\u
wobeju
studij
pjatk,
leži
skutkowaše
bul
Handrij
wulkeho
słužbu
smjerći
Jeje
započa
wosadow
luda
anderen
němskim
Serbami
přeprošuje
narodnej
kraj
dawno
Snano
čłowjeka
serbšćinu
informacije
dich
Serb
##ny
zakład
wopytowarjow
rólu
formje
Čěskej
tohole
smě
Wenn
Byrnjež
chcył
snadź
jednu
Nic
unsere
skupinu
dann
wozjewi
swójbje
knjeni
jetzt
tež,
mjeńšin
wěsće
zarjada
wikach
##jo
zhromadnym
Pomhaj
Cyrila
wurden
##ki
hdźe
zajimawe
dopołdnja
wjesnjanosta
drei
zetkanju
předstajichu
maš
Joachim
tónle
Zwjazk
zaměr
takrjec
přichodne
ersten
mnoho
dobru
NSLDź
Entwicklung
Als
?
prosće
S.
Dalše
Štó
hačrunjež
byli
zarjadowanju
tajkim
swjedźenja
srjedźneje
prawo
ihren
allen
weitere
móžnosće
kultura
žada
beim
12
róčnicy
alles
L.
wěsty
starobje
septembra,
njeběchu
naležnosće
najskerje
##k
župy
wokrjesa
Volk
6
1989
połoženje
narodnym
film
dźělu
duchowny
##y,
pisa
Załožby
W.
Towarstwo
35
seinen
poslednich
dźěše
2006
wěriwych
Pólskeje
zarjad
steja
rěčnik
dźěłowe
škit
Michael
srjedźišću
sollen
wěste
prěnju
móhła
swójske
kruće
dźewjeć
Bohužel
##ski
ta
nyšpor
katolskeje
znate
rěka,
Tuchwilu
Am
tekst
wažny
studentow
skupinje
mysle
junija,
šulow
wučerjow
moje
Hačrunjež
Den
wěry
skutkowanju
programje
70
widźi
tróšku
:
zhromadźizna
mjenom
direktor
wuměłstwa
rjec,
nju
zwiski
rozmołwje
předsydu
muzej
gibt
Smolerjec
mjeńšiny
dźiwadła
Němska
300
wudaće
wospjet
přednošowaše
dlěje
zhromadnosć
wobydlerjo
přichodnje
poslednje
dobrym
Herr
Boži
młodźina
Pětra
My
gmejny
boku
Nowa
wuměnjenja
woběmaj
mjena
lět,
Tomaš
wotměje
serbskemu
haj
wustajeńcu
móžno
T.
Jedna
zakładneje
lětstotku
R.
G.
sondern
kotrymiž
hudźbne
Bamž
meje,
Božim
staw
oktobra,
běchmy
skupin
jewišću
wiki
znamjo
wsow
swójbu
sej,
cyłym
Schule
čo.
doch
Wšitke
pólskich
němskeje
Nowe
žona
cyłu
była
31.
zemrě
kelko
Někotre
Drježdźany
pódla
mši
kromje
klasy
kein
dwanaće
cyrkwinske
beiden
Samo
##ich
Radworju
Kindern
wjeršk
přeprošenje
klóštra
druheje
doby
denn
Sorbisch
měrca,
ličbu
krótko
ansambla
zetkanja
wěcy
srědki
přewažnje
wšej
policija
kotremuž
hodźiny
wuzběhny
rjenje
přednošk
dźěłowych
Mamy
Božeho
nana
nakładnistwo
ludowych
dieses
ansambl
Förderung
150
wěru
přichodnych
ins
hłownej
dźěłaše
Prěnje
EU
unserer
próstwu
kilometrow
hraje
Knjez
wosrjedź
teksty
##i,
wuwića
twar
jenički
ćim
nazymu
knihow
Peter
Eltern
E.
Budyšinje,
zbožo
weiter
Dotal
19.30
twórbow
meine
Haj,
Domje
Alfons
jutrowne
hra
##im
Čehodla
prócowanja
nowembra,
hudźba
Dźěći
sollte
skutkuje
městnach
wuńdźe
wosobinsce
poslednim
naši
narodnu
krajach
große
fararjom
Tehdy
šulske
tysac
gut
dobrej
de
Nimale
Maćica
Jeli
(str.
šulach
nakładnistwje
hłowny
Zajimcy
wuspěšnje
selbst
přewza
póndźelu,
Lausitzer
uniwersiće
móžnosć
lětomaj
wodu
njejsym
dar
chcychu
Stiftung
najbóle
drastu
dalšimi
bjezdwěla
„To
přičin
praji:
krajny
Aber
tajkeho
F.
něhdyši
gmejna
ganz
Bautzener
njeje,
##.
Wojerecach
srjedu,
njedźele
mějach
USA
Němcow
##ach
wě,
wjedźe
möchte
małych
cyłeje
Leben
Drježdźan
štwórtk,
wobsteji
publikum
Jakuba
##ske
wokrjesu
ty
tajku
centrum
Thomas
Naš
Europy
(na
##ć,
Łužicu
zaběra
słušeja
pjera
Wolfgang
##ku
změja
wupraji
wopyće
pater
docpě
Europje
zastojnstwo
wyši
Jich
wuwiću
lětdźesatki
Tajke
połnje
awgusta,
##'
žiwjenske
wutroby
předewzaća
politiske
pječa
einmal
drasće
Erzieherin
wěc
wjetšina
wjesny
wjedźeše
skutk
ryzy
přewróće
předsydy
cyłeho
arcybiskop
Benedikta
2011
wobě
mustwa
julija,
diskusiji
Někotři
Hrjehor
Bjarnat
čěskich
zjawnje
werden,
stara
nakładnistwa
moja
zastupjerjo
wliw
weil
Město
Domowiny,
přinoški
ludoweje
dobra
Składnostnje
Mikławš
Institut
Hladajo
(SPD)
tych,
studenća
sotra
besonders
wuraz
jedoch
Nowak
zašłu
móžu
literaturu
geht
Projekt
Jesus
Dalši
Bei
##es
čisłom
časopis
zakoń
wuchadźa
wašnju
kotre
2004
wotpowědne
składnosć
skoro
nowiny
7
uniwersity
swjećeše
rozsud
pěstowarnje
młodźinu
europskich
dyrbjeli
Přetož
wučinja
wjeselo
smjerće
kónčinach
Sakska
poskitk
kardinal
dafür
załoži
wažne,
towaršnosće
kulturneje
katolskej
Cyłkownje
změny
wuslědk
temje
spočatnje
Nowej
zwjazkowym
koncerće
kommt
dźěla
dworje
cyrkwinskim
Skónčnje
Kónc
Jara
Deutschland
Čěskeje
zhromadny
wosadach
wobdźělnikow
tak,
stary
mein
dary
Dźeń
##c
smjerć
rozmołwy
přitomni
Najprjedy
##0
##o,
wótc
přewjedźe
dóńdźe
Metoda
##li,
šulski
zhromadneho
stat
sejmje
namakamy
cyrkwinskich
andere
allem
Wulki
wulce
superintendent
stata
směra
njemóžeše
měšćanosta
awtorow
apryla,
1992
přitomnych
powołanje
pomnik
ministerski
duchownych
57
wuběrk
přichoda
přepoda
januara,
Křesćan
wuměłske
wosadny
skedźbni
přičiny
nimaja
22
wučerja
wučbu
wuběrka
třo
farje
Zukunft
Cyrkej
wukubłanje
prošu
atd.
SN
Ende
turněr
słušeše
ohne
decembra,
Zhromadnje
##osć
wjesneho
třomi
tomu,
Worklecach
Marka
21
žiwi
tajka
pomocy
ličby
dźensnišim
Biskop
##/
załožby
zakonja
widźeć
poměr
ob
małym
Awtor
sylnje
steht
problem
prawidłownje
měć
jednotliwe
diesen
Haus
##l
tema
předewzaće
Tón
2000
(03
##tej
wam
studija
prěnjeje
podawk
nichts
mjenuje
krajnym
wokolinje
Hier
serbšćina
rěčne
kóždu
dobje
basnik
wuslědki
situaciju
čěskeho
zběrki
runjewon
projekta
naju
kěrluše
hast
zhromadźizny
ruce
přichodny
móžno,
był,
Geschichte
zwjazkowy
spěwa
składnosć,
nadawk,
mnohim
Wer
Marije
žanu
wěriwi
nadawku
anderem
Kind
Andreas
(
woda
tradicije
socialne
biskopstwa
Towarstwa
Alojsa
čitaše
wšu
strach
smědźa
same
kulturje
docyła
awto
Zhorjelc
Maria
##«,
wutoru,
seit
ludu
ZSW
spěwow
kommen
njebudźe
Wojerecy
Michałskej
Loni
Grundlage
##5
vergangenen
spyta
pochadźa
myto
Tag
##am
sekretar
meji
ludowy
dohromady
##ska
přećel
mnohimi
formy
druhdźe
Herrn
Christian
Bjarnata
Beispiel
žonow
Ćišinskeho
zrěčenje
wosadnych
tehdom
poskići
ludźimi
literatura
křesćanow
##owa
rěčow
njesmě
material
duchowne
Schulen
Alojs
2003
swjatym
slědźenja
ludowu
großen
Sächsischen
Swjateho
zamóže
wuda
prědowanju
nabožne
klóštrje
Róžeńće
Herr,
1993
žana
rěči,
list
hatten
gemeinsam
Rady
Cyle
1948
šef
wě
městnow
erste
až
zwisk
wučerjo
wosebitu
tónkróć
domizny
Tři
Manfred
Handrija
D.
2007
časopisa
znatych
wólbach
starym
skónči
situaciji
připóznaće
połojcy
mjenowaše
mišter
kusk
kapłan
dźowka
Teil
400
zašłeho
zamołwitosć
nowymi
bzw.
Dort
Abo
wyše
politiki
nastupanju
minjeny
ministerstwa
kurs
jutrownych
jednaćel
"
załoženja
wěrje
seinem
Swoje
Swjaty
Běše
1991
wužiwanje
t.
słowami
swójbow
najwjetši
móžnosć,
kontakty
dyrbjał
Předewšěm
wubědźowanje
rěčeše
jutry
gymnazij
dožiwi
dać
awta
sollten
powěda
kwas
drasty
dopomina
Jězusa
Janom
Gerat
zachowanje
poezije
nóc
naprawy
mandźelskej
Marija
Clemens
namjet
lubosće
bereits
Dabei
##nu
šulskim
přestawce
hesło
gymnaziju
generacije
Pozdźišo
Koch
tradiciju
něhdyšeho
młodźinske
młodeho
móžne
hłuboko
dabei
Nuk
Mitglieder
Lehrer
##ec
stanje
měr
krótkim
hali
basnjow
Róžanta
Reinelt
proces
porěča
Józef
wopytowarjo
wjetše
pak,
nyšporje
muži
literarne
dwaceći
deutschen
Wićaz
Němcy
Krawca
Helmut
Hanka
Foće:
wosadu
młoda
kóždej
kóžda
diskusije
Katolski
žiwjenski
ćišć
słužbje
samsne
dźěławosć
biskopskeje
zašłym
wědomostne
wuhotowanje
wobdźělnicy
projekty
muža
ministerstwo
křesćenjo
dobrych
Zawěsće
Sobotu
24
sakskeho
pólskeho
podobne
literaturje
Smochćicach
Minderheiten
1946
će
wužiwa
radšo
dalšej
Druhi
90
(w
##š
##m,
čim
přichodnym
politiku
dalšu
Mam
45
1998
čitar
wobaj
tej
orchester
měni
mandźelska
Stefan
Franc
Berlina
činić,
tutomu
rjekny,
přihladowarjow
poradźi
gegen
dźěłom
1994
11
zawod
towaršnosć
rozprawješe
přichodnu
lize
jednanja
Dom
tam,
stać
sorbisch
předsydka
narodny
horje
dźěłow
cyłku
Stanisław
Dazu
1995
třeći
titlom
někotrymi
njehodźi
hudźbny
Tule
##je,
wysokosći
statny
pyta
politiskich
kubłanja
TCM
Přeco
Krótko
Gemeinde
Angelegenheiten
##taj
šansu
zašłe
towarstwa,
plan
nihdy
nicht,
narodna
najwšelakorišich
gehört
domjacy
Merkel
Kirche
ruku
dóstanje
cyrkwje,
Zu
Sakskeho
23
česć
časy
weiteren
swójbne
stareho
podawki
našemu
naležnosć
kniharni
dyrbiš
dnjej
WITAJ
Kulowje
##ł,
ćeže
wopory
situacija
seminar
mša
dobyće
Wulka
Noweje
Kamjencu
##om,
znate,
wuměłc
póndźelu
prašenje,
liegt
februara,
dźěło,
cyrkwjow
Přiwšěm
Njebjelčicach
Domowinje
Deshalb
##2
z.t.
wutrobu
wrotar
wosebita
tohodla,
tajkej
sudnistwo
stejachu
runja
rozłoži
prócu
mjenowany
hrajerjo
horjeka
dźěła,
centruma
Tekst
Monika
Budyske
##-li
wuchodnej
trenar
swěru
srědkow
sagte
rěkaše
poselstwo
nun
mała
lětuši
Marijineje
Gruppe
Domowinu
2008
česći
předstajenja
poněčim
njebychu
institut
dźěłać
centrumje
blido
awgusće
Smoler
Njedźelu
Dyrlich
##3
##.''
##ła
wuměłcy
wočakuja
wobstatk
wobdźělichu
statne
němscy
domiznu
aller
Kamjenc
B
rukow
młodźinskeho
mjenowane
eurow,
bliže
Welt
Tutu
##owy
##owe
##j,
##ch,
štwórtk
Łužiskich
wony
vier
unije
puće
powšitkownje
podachu
njeboh
měsac
letzten
hólcy
gehören
Załožba
Takle
Posoł
Choćebuskim
600
zašłosći
wědu
wozjewjenju
wojakow
wjesnych
teho
swójskich
spisowaćel
duchowneho
Wam
Robert
zamołwity
zakónči
wubědźowanja
woči
styki
studiju
rěče,
lisće
swjeći
frakcije
dlěši
deine
dalšeho
Wasser
Vor
Unsere
Euro
čož
čas,
wotewri
seminara
njeměješe
narodnin
mojeho
ludnosće
ličbje
juniju
gute
Porno
Mi
Kral
zakónčenju
wuspěch
spisowaćelow
septembru
přichodneho
pólskim
lětušeho
hrodźe
Zejlerja
Region
zaměrnje
sotry
přikładźe
podobnje
někajke
hinaše
Ziel
Poprawom
Ludźo
Gerhard
FDP
1999
…
šulskich
zjednoćenstwa
wšěmi
wysoko
wučerka
skrótka
mjezy
ligi
aktiwnje
Katolskeho
CD
C.
Božich
##8
wěra
wostanu
unser
tamne
swójskim
instituće
hranicy
žadaše
čole
woswjeći
wjetši
swjate
stronu
stawiznam
podachmy
literarnych
gmejnskeje
Druhdy
Domowinskeje
Damit
Brandenburg
Bildung
##d
šule,
woznamjenja
wotpowědnje
trjeba,
přećeljo
pokazuja
koncerta
jědnaće
dazu
Běła
55
##nja
wuraznje
wosobinske
wosebitym
serbstwo
pěstowarni
němska
krótki
hospodarske
cyrkwju
bydli
Jemu
Hnydom
Frank
Chrósćicy
žiwjenja,
zwěsćić,
wysokej
nětk
měrcu
ludowym
Sokoł
Dwě
Chrósćic
wudaću
politiskim
nadźija
małeho
firmy
bratr
Außerdem
800
wid
statneho
sind,
přistup
knježeše
institucijow
fararjej
druha
Budyska
1937
##ow,
ćežke
zajimy
wubědźowanju
staršej
reje
informacijach
hudźbneho
domiznje
An
##4
žiwe
wokoliny
trěbne,
rěč,
přehlad
pólski
organizacije
jedneje
Europskeje
##skim
zahrodźe
wudawki
rjadu
nadźiju
hosćom
Wojerec
Angela
časa,
ći,
składnosći
poslednjej
pokaza,
natwar
nadawkow
mšě
młode
dóstanu
Ralbicach
Prěnja
2002
##z
łužiskich
započnje
radu
mužojo
kóždemu
kotrajž
hódne
dóstachu
druhu
denen
awtora
Martin
Ludmila
(hlej
##.)
##ami
zasłužby
wobdźělenje
wječork
samsny
regionje
putnikowanje
pomhać
medije
knježi
funkciju
direktnje
Wšo
Sam
##štaj
wuprajenja
rozsudźi
rozprawja
poćahi
nawodnica
mjenowanych
hudźbnych
hrajerjow
hodźin
ewangelskeho
einige
Zwjazkowy
Serbscy
Běłej
##n,
zastupjerjow
wjesne
werde
teke
sobudźěłaćerjow
njedźeli
lěću
koło
jewi
insbesondere
baseń
Slepom
Myslu
Mal
##ca
zwjazane
wobrazu
swójski
redaktor
powědaše
najwšelakoriše
iniciatiwu
hodźa
fota
dyrbju
Zwjazkoweho
LĚTNIK
Braniborskej
Arnošta
1997
zetka
sächsischen
sylnišo
nadobo
lud,
kónčiny
katolikow
Vertreter
Serbsku
Marje
Lk
Chrystusa
Bórze
27
času,
tworjenja
słowow
prawe
dachu
Wobaj
Hłowna
šansy
woli
swójsku
starosće
młodźinski
kónčin
jednorje
hraješe
hodź.;
dróze
Werner
Radwor
Hornja
zaćišć
wosadni
tydźenje
pólskej
prawy
koparski
institucije
hósć
historiske
dušepastyrstwo
Meine
čěskim
čini
zdźěli,
wustupi
poćah
njón
ludowej
kajke
jubilej
jasne,
Weg
1933
%
##in
činić
zda
wobsah
rozmołwu
małej
lěpše
gmejnje
bój
Wjetšina
Rahmen
Mädchen
Ihre
28
1996
zarjadowanjow
wosadnym
syna
sobudźěłaćerjo
razu
narodniny
narodninam
měnjenje
mocow
kulturna
kantor
jězbu
hłownym
hłowna
duch
domjacych
Spočatk
Oberlausitz
I
2001
##uje
##sku
##skeho
škody
wokrjes
swójskeho
rěčeć
přełožk
předstajenju
nowinje
kamjeń
dźěćacych
dohlad
Unterstützung
Jeničce
Gottes
Chrystus
Aufgaben
čitarjow
zahe
wjesela
tworjenju
tutymi
tamnišej
srjedźnej
spěwarskich
Von
Noweho
Mt
zwjazkowe
pólskeje
njejsmy
móžeja
móhłrjec
km
dorost
Zhorjelcu
Wčera
SED
Matthias
Hłowny
wrotow
wojacy
wodźe
mojej
kulturnej
jenička
dušu
Wječor
Budyskich
##te
ćěło
załoženje
wsy,
tworjenje
swójskej
mału
lětom
ludźo,
ludow
kruh
hłós
hłowu
ewangelski
Wulke
Rozhlada
Prjedy
Jónu
Josef
96)
##1
čisle
zhromadźiznu
wólby
wulět
wjetšinu
towaršnosći
starej
rjanym
policije
nimoměry
młodym
mócnje
mjezynarodnym
komponist
hłownu
ewangelskeje
dał
ako
Zusammenarbeit
Radworja
(a
sylny
rodźeny
lětami,
kěrchowje
Wy
Vorsitzende
TO
Sokoła
Němskeje,
##7
wšědny
wčerawšim
twórbami
srjedu
prawym
koncept
1950
zemi
wuměłskeho
wopisuje
serbšćinje
nuznje
klóšter
jimaj
hódnoty
ewangelske
dźiwadle
Wjeršk
Nowiny
Ludwig
Lorenc
Land
##ung
##nju
zaklinča
zajimcam
wonka
tradiciji
titul
runinje
narěči
kónčinje
ideje
hibanje
dźensniši
dotalne
Radworskeje
Budyšina,
##h
žiwa
wěstu
wočakuje
titulom
połoženju
njemóžeš
najlěpje
hudźbnym
hrajer
hat,
gestern
bjeze
zdźerženje
wuměnk
wobrazow
widźeć,
spožči
sobustawow
přitomnosći
kultury,
Zaměr
Sće
Müller
Mikławša
Domu
(nalěwo)
tale
přičina
njedaloko
nastork
matej
konferenca
katolska
forma
dypk
cil
chlěb
basnika
Tójšto
TAMNE
Prahi
Namen
Janej
Hana
Gott,
Georg
&
zjawneho
wšědneho
telefonowe
tamny
słowjanskim
student
lětušim
kěrluš
jasne
hodźinje
darauf
cyła
Mein
##9
ČISŁO
wěstym
wěnowaše
wosobow
tworjacych
stammt
sejm
sein,
róčnicu
redakciji
přitomnym
profesor
prašenjach
mustwje
doskónčnje
diskusija
dać,
chwile
Muka
Cyža
!
zwěsći
załoženju
zarjadowanjach
skića
samsnej
problemow
narod
měsacy
ihrem
festiwal
duchowni
Sakski
čitanje
znateho
wida
twórbu
stehen
rozprawy
přeprosy
połojca
mištra
hibanja
haben,
boju
Verein
Romje
Kniha
Jürgen
Delan
-,
##chmy
zjawne
zetkachu
sakski
regiona
postara
poskitki
nětkole
ministra
kleinen
dźěławosće
dźiwa,
cyrkwi,
chutnje
Přećiwo
Kocor
Hdźe
Dieter
Da
Chróšćanskej
Budissa
Budar
50.
##jom
zapósłanc
wutoru
němskimi
najlěpši
měšnikow
lěhwa
hołym
cyłk
Podobnje
Niederlausitz
Nedo
Dalša
700
##wši
žiwjenjom
zemje
wědźeć,
wuhotuje
wudaća
wjedrje
kruha
jejkow
Unter
Seit
Kocora
Bukecach
zběrku
teje
studowaše
rozprawje
přińdu
móžachmy
mni
hłowne
hudźbneje
formu
erst
dźěćace
Weise
Uwe
Tele
Naše
Maßnahmen
Lipska
Kito
Instituta
Frau
Fragen
Choćebuza
##6
telefonowym
sylne
rl
pućowanje
programom
politice
namjety
miliardow
kóšty
hudźbnje
hosćencu
hody
Zwjazkowe
Kulow
Carity
1947
##ej,
wěnuje
wučby
verschiedene
twórba
spěchowanja
row
přednjese
połdra
findet
chowa
biskopja
Posledni
Jezus
250
wobšěrnje
wobnowjenje
wjedro
trjebaja
swjedźenskim
sprach
puća
pisaše
někotryžkuli
nałožki
naprašowanje
krajiny
kedźbnosć
hódnoćeše
dźeń,
dołhi
bist
Vatikan
zašły
wuprajenje
wobstaća
tući
temy
sei
samsneho
rozprawu
rozhłosu
połnej
lětstotki
lochko
kontakt
haj,
dźěćaceho
dwurěčnych
dowěru
Thema
Hdy
Chcu
žadanja
čitać
zwjazkoweje
wutworjenje
wječora
tamnym
spěwarjow
spěwami
přewjele
njemóžemy
njemu
měšćanskim
minjenych
hólcow
dźěćacy
chorych
byli,
Wirth
Projekte
IV
Andrickeho
##ta
čěski
wědomostnych
stawje
snadnje
smój
pochadźacy
němsku
njeda
móžeće
ludej
jězby
gehen
dožiwjenja
alten
Snadź
Naša
Ličba
Heute
Chór
100.
(z
zrěčenja
zamołwići
zajimawy
tachantski
swětowe
stejišćo
spěwanje
rěču
republiki
radźe
měsacow
kubłanišća
katolski
Wobě
Vater
Radworskej
Delnja
60.
škodu
změjemy
swjatej
putnikow
pokazać,
nastupi
najlěpše
durje
aprylu
V.
Kita
Józefa
Johannes
Běchu
časach
zwjazkowych
wuměnjenjemi
twarske
sudnik
spěwarjo
nochce
nas,
lubosću
gern
finden
dwurěčne
deren
Zum
Wažne
Něšto
Koła
Dorf
26
##skej
žadanje
wušła
wosady,
wosadneho
wobsahuje
trjebamy
słužba
swětoweho
radosć
němčiny
měsacach
móžnosći
mjenowanym
knjeza
jednanje
dołhe
Dies
Anfang
##emu
Šołćic
wuzběhny,
wuprajenju
wosadne
won
tehdyši
słowjanskeho
sportowe
připołdnju
přinoškow
poradźiło,
něhdyšich
krajneje
hospodarstwo
WITAJ-Sprachzentrum
Tónle
PDS
Němskej,
KP/kna
Budyšin,
August
##ni
zrozumjenje
wysoke
wokomiku
wobstejnosće
potrjechenych
podawa
pj
měnjenja
mnu
hodowne
Wotrowje
Paul
Alle
Achim
##oj
žonu
čěskej
Čłonojo
wuměłca
wothłós
wote
wina
tamnišim
słowjanske
system
sobudźěłaćer
rěka:
pokazachu
njemóžu
lange
informowaše
dies
Znajmjeńša
Prof.
Popołdnju
Nan
Aus
čo
čitarja
wučbje
rund
rozšěrjenje
přewróta
přemało
popołdnjo
pomha
něhdyšeje
měć,
meiner
lětnje
koncerty
jeder
busom
Maćij
Lěto
Lěta
Karl
štóž
zastaranje
wysokim
wobkrući
wjesnym
swjećachu
swjatych
sakskeje
přihotuje
nastupa
naroda
křiža
kěrlušow
dobreho
derje,
dawa
Wornar
Tomu
Rakecach
Hilfe
1956
časopisu
změnu
zaćišć,
zamó
wuzwoli
wozjewjenje
wokrjesneho
traje
skutka
serbstwa
rowje
pokal
njemóžachu
nic,
napisa
hraja
dein
Wort
Sprachen
Mój
Dohromady
Dieses
75
2012
zarjedźe
z.
wusko
sćěhowaše
rozdźěl
přiwšěm
přednošku
polach
njemóža
nawjedowaše
najwažniše
kruhu
komponista
jewišćo
hłowneje
hospodarstwa
bohate
Rozhlad
Přičina
Nowaka
Marijinej
Marijina
Ludowe
Kamjenskeho
Hans
Choćebuskeho
wukraju
wukon
wobłuk
wjesneje
twarjenja
tamnych
nutřkowne
kluba
kapłana
jejka
Worklecy
Vattenfall
Unser
Swój
Pfarrer
MDR
Kotre
Horst
Aufgabe
##wa
čitanja
wědomosćow
wowka
samym
ruki
rjanej
přisłuša
prawom
njehladajo
nawjeduje
dźens
Njedawno
Mać
Kóžde
Korla
Fota:
120
wysokeje
wotewrjenych
wotewrjenje
wobchad
třeće
stronach
skupinach
přeće
pilnje
měšćanskeho
měry
lětnik
krok
festiwalu
dróhi
bleibt
Trudla
Sächsische
Klasse
##ke
znaje
zběrka
zahra
wójska
wuměnku
wrotami
wjetšu
wikow
tuteho
struktury
stawiznami
přizamkny
politika
podłu
oktobru
něhdyšej
nutřkowneho
foto:
##hu
Über
zhubi
zaběraše
wěstych
wosadnej
twori
tekstow
swójskeje
slědy
přinjese
powěsć
poskića
pisać
nadźije
mojich
mjezynarodny
januaru
hwězdy
hodowny
filma
dopomnjenki
bjeztoho
Zajimawe
Tale
Spočatnje
Prezident
Nowin
Nawěšk
Krawcec
Běch
Braniborskeje
##štej
ćah
zwurazni,
zahajenju
wyšej
wysoki
wuhotowa
wonym
wobstaće
wjednistwo
swjedźenje
rěčny
polo
pismo
nowembru
nazhonjenjow
lětuše
hrow
dźěd
diskusiju
charakter
biskopow
Europa
Dietrich
'
čěskeje
čitanju
časćišo
zaměry
zajimom
wašnja
swójbnych
swobodnje
sobu,
směmy
rumnosćach
rozmołwa
njetrjeba
katolsku
jeden
hodźinu
ewangelskej
duchownym
chorowni
besondere
Ruskej
Nagel
Krabat
Freistaat
žohnowanje
šulerjam
znata
zawodźe
zakładnej
wědomosć
wostachu
wokolnych
wobšěrne
spěchowanske
předmjet
połsta
oficialnje
naćisk
holcow
habt
generacija
dale,
akciju
Roma
Njedźelu,
Hewak
Christus
zhromadnosće
wočakowanja
wobory
mjenowaneho
medijow
korjenje
komisije
intensiwnje
dotalnych
aktiwity
ab
Waršawje
Schutz
(naprawo)
##skich
zastupjer
zakładne
wšelakimi
wuměłski
wuběrnje
staršim
rozdźělne
přinošku
prašenju
posedźenja
parlamenta
nationalen
měšnika
ležeše
kole
katolskeho
fünf
Tohorunja
Radworski
Posoła
Hórnik
Christiana
Brězana
##ymi
##moj
znajomosće
wuměłskim
tehdyšeho
tamnišeho
rěča
prócowanje
oft
někajki
naměsće
bywa
awtorka
Schröder
PJATK,
Němske
Nichtó
Kamjenskim
Domowina,
Dafür
Bohom
Andricki
zastojnstwa
wopokaza
rumnosće
pěsnje
njeběše
nadźiju,
ministerka
kral
knižnych
bietet
Serbach,
Předsydstwo
Koncert
Jetzt
Interesse
Hause
Don
1952
(wotlěwa)
##le
„W
Škoda
łuce
wójna
wuměłskich
wuhotowachu
widźimy
staji
srjedźišćo
sakskich
rěčneho
rozhłós
prajić,
měšnik
krótke
klub
februaru
farskej
chodźeše
Mutter
Hańža
Günter
Dyrbimy
Domowinska
1960
##de
Čornym
zwěsći,
wotměchu
vielen
tworja
towarstwje
swětowych
swójby,
staršeju
rěčnica
rjana
poslednja
nutřkowny
nastajenje
katolscy
erhalten
dobu
delnjoserbskeje
awtom
Woda
Stajnje
Serbja,
Rudolf
Interessen
Familie
Domowinskich
Dieser
1949
##ja,
zasadnje
wustup
twarskich
termin
swědči
slědźenje
seminarje
sekcije
rjadownje
kubłanske
identitu
i
hrać
ganze
dźěławosći
doprědka
delnjoserbskich
decembru
bratra
Vereine
Slepjanskeje
Siedlungsgebiet
Pančicach
POLICIJA
Klaus
Gebiet
1951
šěroko
Škoda,
zarjadowa
třěchu
sogar
praksy
pokazuje,
podšmórny
nastachu
mustwow
křižerjow
kubłanski
junge
hódnotu
hudźbje
dypki
dołhim
awtorojo
Njebjelčicy
Kubašec
Jadwiga
Bart
65
14.00
##–
wuzwolichu
wotrězk
wobšěrny
tči
swěta,
später
spisowneje
přihotach
połčasu
postawu
jedes
hłosow
Völkel
Program
Kóžda
Kulowskeje
##owej
žiwjenskich
šulerjemi
wěstej
wusyłanje
techniku
sćěhi
politiskeho
pjatka
naležnosći
nachwilnje
lěhwje
literarny
kruch
knihi,
guten
besteht
an,
Wustajeńca
Buch
32
Čornakec
zwjazanosć
wěmy,
wotpowěduje
trójce
słušachu
spokojom
přewodom
planowane
pišćelach
njebu
naraz
najwjace
městno,
krute
kleine
hosćimi
dožiwjenje
bisher
basni
Mitglied
Durch
Bereich
##ło
žiwjenje,
wědomostny
wukony
widźu
swobodu
srědk
přećela
přebywaše
pólske
poměry
piše
moderne
keinen
identity
dźěłoweho
dźakowaše
Veranstaltungen
Swoju
Kelko
Institutionen
Hauptversammlung
Daniel
škoda
Šulerjo
Štyri
zawěrno
wotewrjenju
wjesnjenjo
wažnosć
tón,
teritoriju
sylnym
swětło
stawa
s.
radźićeljo
přiwuznych
porjad
podpěra
nutrnosć
móc,
mjenowanej
maćeršćinje
lěkar
kofej
kmanosće
insgesamt
hwězda
husćišo
hudźbnikow
ganzen
brauchen
Tilich
Polakow
Interessenten
Gruppen
Awgusta
(nimo
zwjazku
zjednoćenstwo
wšědnym
wyšeho
wučba
sieht
přirody
pěši
poča
nuzy
njesměrnje
nastawk
namołwi
lěhwo
kraje
konnte
einzelnen
Ně,
Nastupajo
Lubina
Chrysta
Brankačk
Braniborska
„Z
štyrjo
wustawje
verschiedenen
twarski
tamniši
słyšeć
sächsische
swjatočnosć
strach,
staru
smědźeše
rěčnych
rěčach
rodźena
rjanu
prašenjow
poby
njedźela,
maćeri
kruty
juliju
jubilar
hłownych
fazy
dźěłu
dowolnosć
Volkes
SKI
Němski
Landkreis
Kurt
87
ŁUŽICA
časow
zwjazkowej
zhromadnosći
wukrajnych
wozjewjenja
wotrjada
wer
war,
unterstützt
swěrny
sport
rěčneje
přičinu
předstajić,
njebjom
městach
miliony
ludowa
koła
kongresu
jutře,
dźensnišej
duchu
cyrkej,
chórom
Zusammenhang
MS
Dann
žórło
čłonka
zběrce
wjesna
twarjenje
trěbny
słowjanskeje
swójbach
statneje
stareje
region
problemach
padach
nowina
městow
lětstotka,
historiski
doba
bitte
akademije
Maja
Kajke
Deutschen
Bis
Ani
##‘
zakonju
wyšeje
wuspěšne
słownik
statow
solche
sezony
předstajić
pozitiwnje
plany
nawod
křesćanske
katolskim
jeničke
hrozy
hospodarski
chorownje
Mitarbeiter
Korle
Frencl
1987
##jow
žiwjenskim
šulstwa
čłowjeske
čita
zwony
wěsta
swjata
skutki
rěčnej
rjadowanje
přednoški
porjadnje
poradźi,
pisany
nächsten
njedźele,
namaj
najwjetše
ministerskeho
mandźelskaj
jewja
delnjoserbske
darüber
bydlenja
arbeiten
also
Zetkanje
Tajki
Nawki
Mnohe
Kardinal
Ihnen
Himmel
Chróšćanskeje
Bund
##skeje
##o-
ŠTWÓRTK,
čitarjej
zeńdźenju
zbudźi
wuwi
wu
wosebitej
wonaj
wobhladuje
stejo
spěwarske
sakskim
politikarjo
njeznaći
nalěću
najebać
n.
młodostnym
kulturnu
kopańcy
katolske
informaciji
gleich
gerade
dožiwichu
dorosćenych
była,
Zhorjelskeho
Wutrobny
Dresden
2:0
zymje
zastupi
wón,
wowki
wažna
situacije
přewozmje
přejara
projektow
prašenjam
politisce
hłowneho
heißt
generalny
Waše
Tage
Pater
Dwaj
Drježdźanskej
Derje
1955
##źe
##nych
##en,
Žur
zajimje
wosoby
wobswět
welches
swobody
strowotu
sceny
raznje
postupowanje
podźakowa
nowemu
młodźinskim
muski
medijach
lońšeho
hrajachu
hrach
gemeinsame
dyrbjało
drasta
direktora
Smolerja
New
Měrko
Informationen
Drježdźanach,
19.00
Čas
§
zjawnych
wróći
wosadneje
trenarja
rěčeć,
přińdźe,
puću,
narodnje
mysli
mal
ludospyt
dźensniše
doma,
delnjoserbskeho
angažement
Wałda
Themen
Samsny
Moja
FC
Erziehung
Budissy
Awgust
##my,
öffentlichen
zjawnosć
wšón
wužiwać
wutrobje
unseren
spricht
směr
połny
powita
pomału
něhdyšim
mocu
mehrere
lubi
konferency,
chcyła
bydlenje
budźemy
Sohn
Situation
ST
Ludowym
Budarjowa
Bernd
42
„Sym
„Na
župa
šulskeje
załožba
wědomostneho
wuznamne
wonych
wobzamknjenje
titl
spěwaše
prócy
problematiku
prawow
pokiwy
pišćele
měšćanskeje
měł,
mjezynarodne
koparjo
konkretne
jězba
hlada
ewangelskim
cuzych
bydleše
blida
Zwjetša
Róža
Nawoda
1988
##st
šuler
časom
čaka
zjawnym
wotrjad
wopytachu
woheń
tymle
swobodneho
sportoweho
připosłucharjow
předstawy
priwatne
njeposrědnje
móžach
maće
lěta,
kompozicije
es,
dźěłaja
běrow
akcije
Zelenych
Sprache,
Slepjanskej
Nowym
Hromadźe
Hast
Garten
Dźak
Ducha
##mi,
zwisuje
zmysł
začuće
wěm,
wědomostnicy
witaše
tamnej
sorabistiki
přikłady
pomhać,
něštožkuli
nowinach
njeměli
našimi
młodostnymi
mišterstwa
materiala
lětdźesatkach
docpěchu
dalša
SŠT
Skupina
Myto
Jakubaš
Hosćo
Bautzen,
33
02625
##scy
zweisprachigen
zawoda
wužiwaja
woneho
wolu
třećim
swjedźenski
spytachu
putnikowanja
prezidentom
połojcu
mjezynarodneho
literarneho
koncertow
folklorny
Wojerowskeho
Tätigkeit
Koło
Dekanatne
Cottbus
##cu
čitarjam
ćežko,
zugleich
zakłady
würde
wotmołwu
teksta
swědča
swobodny
sehen
samoho
rozprawa
pomnika
měještaj
mjeńše
minjenu
lernen
komponistow
južnej
historiskich
fast
eigenen
domy
domu,
Wosebity
Schleife
Pawk
Ja,
Drježdźanskeje
Christoph
Bürger
1941
Šćěpan
čłowjek,
změna
zemrěteho
wjetšich
swójbnym
sprawnje
rjec
přećelemi
předsydstwje
předleži
połne
pismowstwa
o
naležnosćach
móst
molerja
meinen
liči
jednotu
informacijow
hód
dalokej
cyrkwinskeje
bywši
WUTORU,
Serba
Rozhledźe
Ralbičanskeje
Policija
Konzept
Fabian
Doma
34
1919
štyrjomi
wótře
wójnu
wottam
wotměwa
wosebiteho
wokrjesnej
wichtige
towarstwo,
sčasom
susodnym
stronow
staroby
spěwachu
serb-
reformy
přewodźeše
oratorija
njemějachu
mjezsobu
könnte
kwalitu
jastwa
inzwischen
druhemu
dał,
Woche
Tobias
Pólskeje,
Móžemy
Drježdźansko-Mišnjanskeho
Cyril
Chcemy
59
1958
(Dale
##ž
##s,
##chu,
šulskej
Łužiska
zusammen
zapłać
wědomosće
wójnskich
wuhotuja
wočomaj
wonkowne
wjetša
wažnu
swojimaj
stać,
statnym
spisowaćela
serbskeju
razy
njedźela
nimamy
kulturu,
koparskeho
kamjenje
jězbje
gilt
entsprechenden
eksistency
drjewa
deutsche
deinen
biskopstwo
biblije
agentury
Programm
Pjatk
Njehladajo
Klětu
1939
ćěła
zastojnicy
zapřijeće
zanjese
wuznamny
wuchodźe
wotewrě
wopor
wobydlerjemi
wjesnej
wegen
tel.
stammen
připódla
přidatnje
puć,
postawy
postawa
poslednjeho
posedźenje
narěč
nabožiny
mysl
lěsu
kemšemi
interneće
dyrbjachmy
duri
byšće
Wokoło
Rat
Praze,
Neben
Leute
Francoskej
Deleńk
Besonders
2plus
1980
Ći
wědomostnikow
wólbow
wy
wuznamnych
wosebitosće
tysacy
sydło
stawiznu
statnych
spěwom
sobustaw
sakskej
rozestajenja
rjekny:
protyka
prawdźepodobnje
pozitiwne
pokazać
podarmo
mjeńšinow
maćernej
mandźelski
kapałce
hustodosć
hród
dźiwajo
dotalny
delnjoserbskej
dele
chóry
aktualne
UNO
Seite
Rom
Pjeć
Nam
Marju
Malinkowa
Ma
Ludoweho
Kunst
Kulowa
Geist
Dźesać
Crostwitz
Bad
2013
12.00
wohl
wobłuka
wječoru
stołp
spěwajo
putnikowanju
potom,
pochada
młodymi
moju
listy
kóždolětnje
komisija
knjenje
jungen
jatych
jamy
chórow
brauche
Zur
Zugleich
Započatk
Wórša
Swjedźeń
Starši
Přejemy
Petra
Mittel
Kulowskej
KP
Jedne
Jahres
Hinak
##go
Židow
znamjenja
zašłosće
začuća
wuměłsce
wulkimi
wjeski
unseres
słowom
skupiny,
rozsudy
přestawki
předstajeja
próca
powołanju
politiski
politischen
plana
njebych
nabožnych
młodej
móžnosćow
ludy
iniciatiwy
duchownje
chórje
bjezdźěłnych
Wodźe
Viele
Přichodny
Ota
Najskerje
Najebać
Kamjenca
Jutře
Gäste
Dźěło
Domaška
Andrea
1938
##ty
##la
žaneje
Ćišinski
zmóžni
zjednoćenje
zhromadnej
zakładnych
wotmołwi
wosud
wostać
symbol
susodnych
status
starosć
redakcije
pó
projekće
neu
nawukny
myta
lěpši
kancler
kajkež
fakt,
dźěćatstwa
Wojerowskim
Träger
Teilnehmer
Platz
Konrad
Jugendlichen
1968
žiwjenskeho
Často
znatym
zemju
započachu
zakaza
wutworić
wustupichu
woporow
třělwu
swjeća
su,
spěchowanju
skutkować
sakske
redakcija
pozdźišo,
powołanja
podać
pisma
napisał
měšćanskej
hódnoćenje
hodźinach
hić
führt
dźiwadłowe
dla,
běžnje
Zejler
Umsetzung
Tući
Ralbicy/Hórki
Potajkim
Njeswačidle
Hand
Christina
Blick
čłonami
čěske
zda,
zarjadniskeho
wuměłcow,
wotběh
wobrubi
wobrazami
wjesnjanow
wjednistwa
wird,
tydźenju
syće
stellt
staršimi
sorbischsprachigen
rěčnym
regelmäßig
referent
přepytowanja
póńdźe
prawu
pomniku
pjenježne
nie
natürlich
namakać
měli,
moler
mać,
ma,
m
konnten
kemšow
domow
dom,
dessen
damals
cyrkwinskej
bohaty
Wolf
Wojerowskej
Starej
Sonntag
Saksow
Němsku
Něhdyši
Angebot
36
##ojo
zurück
změnje
wukraja
wočiwidnje
wažnych
słónco
słowa,
stand
sportowy
socialnych
schnell
rozrisanje
přidatne
přichodnej
přeprošeni
powójnskich
powołanske
narodow
młodeje
lětušich
kritiku
kajki
ewangelscy
dźensa,
dźakowano
darf
Zwjazkoweje
Zhorjelca
Stelle
Serbowka
Róžant
Möglichkeiten
Medien
Heimat
Form
Bild
130
##g
„Za
“To
zehn
wšelakore
wu-
wobdźěla
welcher
towaršnostne
towarstwu
słowje
swjateju
připowědźi
přijědźe
prosy
poradźiło
niwow
neuer
model
krutu
kročel
krizy
ideju
hinaši
dobrymi
budźeja
Młodostni
Kajki
(tež
žórła
škita
złoži
zastupjerjemi
wokrjesneje
wobraza
srědkami
spěwne
rukomaj
přizamknje
pytaja
nošer
měnješe
literarnym
křesćanskeje
kritisce
krajnej
kongresa
jednotki
hospodarskeho
gmejnska
dotalneho
derzeit
chorosće
besonderen
außerhalb
Unternehmen
Trjebamy
Swjate
Sobotu,
SRJEDU,
Něhdy
Nur
Michaela
Landtag
Kamjenskeje
Gebäude
##,,
##uja
„Smy
žadaja
ćežki
wědomostnik
wutroba
wuprajichu
wudawanje
unserem
tachantskej
tabulki
słowjanski
swjatočnosći
stilu
stacije
smědźachu
skutkuja
rěčnu
přikleskom
přeje
prócuje
programy
poziciju
podpěruje
nastanje
naslědnik
namakachu
najwažniši
měsačnje
měsaca
lětniku
kardinala
gemeinsamen
gegenüber
dźěłowy
dźowku
dźensnišich
dyrbjach
domjace
chór,
běrowa
Zeleni
Unterricht
Swjatym
Steffen
Seine
Předstajenje
Pokaza
Mějachmy
Lorenca
Leipzig
Cyž,
Angebote
##–li
##owu
žanoho
štom
zwjazany
zjawnosće
zasadźenje
wěže
wosoba
wabi
techniki
swjatemu
stał
sotru
socialny
slědach
runočasnje
rowa
přeńdźe
přełožki
prózdninach
program,
premjera
nałožk
nawječor
nalěto
motiwy
ligist
krajinu
kopańcu
konkretnje
knižku
kandidatow
großer
ein,
bazy
banki
Vatikanje
Našeje
Harald
Druha
1957
##ten
##nym
##kow
–,
Čłowjek
Öffentlichkeit
zarjadnistwa
zamołwitosće
wšitkim,
wědomja
wonej
wjetšej
twarskeho
turistow
tehdyšim
spomóžne
róli
rozestajenje
rozdźěle
přišoł,
přeća
přeswědčeny,
pytać
ptači
premjeru
prajił,
połnym
postaji
pisomnje
nazhonjenjach
nastawku
měni,
mjezynarodnych
katholischen
hódny
festiwala
fand
einigen
dokładnišo
dobyćer
Veranstaltung
Sitzung
Přichodne
Ober-
März
Leiter
Klóšterskej
Jurjom
Husto
Heinrich
Bratrowstwa
1944
šulstwo
Šołta,
čłowjeka,
čestne
Čim
zwón
zarjaduje
zamołwitych
wědomostnym
wäre
wotmołwy
wobdźělnikami
słuži
staće
statoku
statok
som
rady,
přihot
publikumej
procesion
pospyt
partner
nikoho
nazymskich
měnjenja,
lässt
ludnosć
knižne
kam
jědźe
jubileja
jednohłósnje
domjacym
dialog
Verantwortung
Skerje
Němc
Nawka,
Mai
Jim
10.00
##wy
zrědka
wěrnosć
wotewrjene
wobjedźe
wirklich
teksće
słužeše
socialneho
skići
powołanskeho
organizacija
nowin
njeju
krótkej
krajne
kołowokoło
kemši
jutrownu
hriwnow
dźěłoweje
dwór
dopomni
Zhorjelski
Slepjanske
Ruskeje
Recht
Pflege
Mišnjanskeho
Kraft
Gemeinden
D
75.
48
1954
zmylki
zjednoćenju
wědy
wužiwanja
wuradźowanje
wukubłanju
wohnjoweje
tzwr
statnej
slawischen
samej
přiwuzni
poslednju
pohlad
njezboža
nihdźe
nawodu
nabožny
móžnych
kubłanju
kubłanišćo
kraja,
kotrej
jenož,
hodownych
gab
ewangelska
erneut
dźěłach
dypkami
dokumenty
běh
Zarjadowanje
Vorsitzenden
Termin
Prozent
Ort
Němskeho
Nein,
Mensch
Hinc
Erfahrungen
Chrósčan
70.
1978
1943
1934
1922
zhoni
wuměnjenje
wuběr
woprawdźitosći
wobrazach
weiß
vor,
tamnišeje
ródnym
přihladowarjo
prědowanje
protyki
połstatych
pochadźeše
nimaj
najlěpšich
ludźe
krala
eksistencu
ebenfalls
družiny
dožiwić
dobreje
besten
Wšitko
Problem
Pjatk,
Najwjetši
Geld
Fryco
Film
Familien
Direktor
Alfonsa
1932
1930
##enje
łužiske
zaspěwa
wušiknje
wuspěchom
wulkotnje
wobydlerstwa
wobsteješe
terenje
systema
swojeju
samych
rěčnje
ligista
kongres
ging
etwa
etat
dyrbjała
byće
braucht
Siegfried
Schmidt
Roland
Pančicach-Kukowje
POKIWY
Oktober
Małym
Martina
Lipa
Görlitz
Domašcyna
1:0
1920
(0
žiwjenju,
Šěsć
ćahom
zešiwk
zarjadnišća
zapósłancow
zakładny
wšelke
wčerawšeho
wutworjenju
swjedźenskej
staršimaj
socialnym
skupinow
seid
róžku
regionalnych
přinoška
předewzaćow
prěnjemu
pozadku
pisane
nazymy
najrjeńše
myslu
mjeńšinje
kolesom
klóšterskej
jězora
jednoty
hory
hajenje
generaciji
firma
filmy
eigene
dźěda
Ty
Scyła
Sakskim
SJ
Norbert
Marta
Kamjenskej
Jura
Ist
Identität
Gymnasium
FUEN
Besucher
1953
žno
žanych
šuli,
Šiman
čuje
wša
wopytowarjam
tydźenjach
teologiju
sudnistwa
staraše
ródnej
rjada
přitomnosće
pře
publikuma
njezbožu
narodnosć
młyn
móhł,
motiw
křižu
křesćanskich
kóždeje
konsekwentnje
kapała
hyšći
hospodarskich
dźěsća
dźiwadłowa
dobyćom
davon
dari
cyłka
bywšeho
bydla
Znowa
Wirken
Um
Srjedź
Slepo
Serbskemu
Njejsym
Neda
Młodźi
Minderheit
Liebe
Hodźiju
Drježdźanskeho
Bóh,
44
2014
1985
1940
##us
čłonam
wustawy
wukubłanja
wotpohlad,
wobwodnej
telewiziji
srjedźnych
sorbischsprachige
směrje
rysuje
rozhłosa
přirodu
přewjesć
płody
prošeše
oratorij
městnami
móžnosćach
małeje
literatury,
křesćan
kwasu
inscenaciju
fararjow
dokument
bratrow
archiw
Zły
Wissen
Wahlen
Reinhard
Młody
Malinka
Lipsku,
Kulowski
Komorow
Jaseńcy
Freunde
Feliks
Dynamo
(wot
štwórć
čłowjekej
zastupnistwo
zas
zapadnych
zaklinčachu
wěžu
wza
wužiwanju
wustawki
wuchadźa,
wotpowědnych
wonkowny
wliwom
tebje
socialnu
sobudźěło
sakrament
rozjasni
rjanych
přija
namołwja
nadźija,
městopředsyda
měra
mojeje
maćeršćinu
kwětki
jězoru
hłosom
dóstach
dypkow
blidom
biskopom
Wobydlerjo
Kindergarten
Hoyerswerda
GmbH
Freund
2015
1964
1961
zweiten
zbrašenych
wšo,
wótrje
wulkotne
wudźěłki
wotnětka
wole
wokrjesny
wobwodneje
widźeše
studije
spisa
přihoty
próstwy
pomjenowanje
nošerstwje
nochcyše
nahlady
murje
křižerjo
kursa
kantora
horu
hasy
e
dóstał
dobyću
deshalb
dalšemu
dadźa
chudych
bydlenju
besser
armeje
alte
Syn
Museum
Michałskeje
Mały
Mann
Ideen
Gerald
Doch
Dem
Chrósćicach,
38
31
Šołćina
čłonom
Ćim
zamołwitosći
wopušći
wokomiknje
wašnje,
trěbna
telefonisce
swobodne
spóznać
rěčna
pólscy
prěnjotnje
powěsće
por
pomocnikow
njebjes
neues
najradšo
městnje,
mjeńšina
ministerstwje
kupje
dürfen
ducha
dirigent
bus
bajki
arbeitet
akcija
Te
Ta
Sprigade
Sein
Regierung
Moje
Južnej
Hilža
Frauen
Druhe
Drježdźanskim
2017
1923
##še,
##a''
Łazu
ćežkich
wšeje
wučerskeho
wusyłanja
wujimki
woprawdźity
trěbnosć
stwori
strowy
stellen
smjerću
skedźbnja
přirodźe
přejemy
postup
pohrjebnišću
pochadźeja
mjeńšinowych
mandźelskeje
lubosći
lista
kursu
jasny
inscenacije
informuje
dźěłać,
dróhu
dispoziciji
chorhoj
bože
aus,
U.
Sommer
Pawołom
Lipsk
Katolskim
Handrik
Freistaates
Fall
Aktivitäten
1925
##ća
##neho
wustawa
wuspěchi
wupućowarjow
waše
swětowy
susodneje
sprechen
sprach:
sewjernej
serbsce,
prócowaše
prjedownicy
parku
njedźiwajcy
nazornje
nawróće
nastupa,
měšćanski
města,
mjeńšich
können,
komuna
kandidat
hłosy
hólc
hosćenca
holca
hić,
figury
evangelischen
europskeho
derjeměće
Torsten
Pólska
Meja
Kulowskeho
Japsk
Herman
Ernst
Einwohner
Druhej
Donatec
Běłeje
Beim
07
ćežkim
zeńdźe
zasady
zarjadować
zapadnej
zanjesechu
zaběrachu
wěsteje
wuhotowanju
wokomik
wokna
wobstajnje
wjesele
tydźenjow
són
swójbny
spěwać
sportowej
seniorow
seines
regionalny
přistajenych
přełožku
płaćeše
pućach
prědowanja
preč
poćahuje
pobrachuje
nałožowanje
nationale
mjeńšinach
mjenuja
meinem
machen
lětušej
luby
kwartet
kotry
ja,
hudźbnej
foto
eure
dźěłowa
biskopstwje
awtow
archiwa
Złym
Zwjazkowa
Wojerowskeje
Schon
Richter
Putnikowanje
Nad
LND,
Kemše
Denn
DECEMBRA
Brězan,
Ausbildung
29
##oweje
čěskimi
zawěsćenje
zajimow
wšědne
wuměłskej
wotpowědny
wosobiny
wollte
wobsahu
winowatosć
traješe
tajkeje
stacija
spěchowanskich
setzen
schodźenk
rum
režiju
regionalne
přińdźechu
připadnje
pósła
pruwowanje
procesionje
podawkach
někoho
nastaću
namakaja
nabožnym
měšćanska
mortwych
kop
kapałki
kannst
hudźbnicy
gmejnski
fotow
dźělow
dorosta
chorosći
atmosferu
Wotrowskeje
Worklec
Witkojc
Waš
Simon
Ralbic
Praha
Posole
Poslednje
Markus
Kontakt
Jurjej
Gabriš
Gabriela
Energije
Bukec
1986
1979
1959
18.00
##',
##ła,
##t,
šulsku
łužiskeje
załožić
započina
zadźerženje
wyšu
wuskutki
wuske
wopak
wenig
weit
teologije
tematiku
tajkimi
sorabistiku
skich
přećelstwa
přewjedźechu
póndźele
park
neben
młódšich
młodostnych,
mussten
mjenować
mandźelstwa
lieber
krajina
hinaus
fakty
entsprechend
dochody
deutscher
darow
bliskosći
bjesadźe
Zeitung
Wjesnjanosta
Vermittlung
Trenar
Tomaša
Sćapan
September
STRONA
Předsydka
Měješe
Komorowje
Katolska
Juni
Frage
Cyły
Bundesvorstand
(2)
##tu
čitarjo
zwoprědka
zmóžnja
zdawa
zbožo,
zawostaji
zastupnicy
wšojedne
wědźeše
wysoku
wotpohlad
wola
twarjenju
stupi
stadionje
srjedźišća
sprachliche
schönen
saha
rěki
rozkładźe
rozdźělnych
rejwanska
prědar
poswjeći
podpěry
podawkow
padny
njesmědźa
natwarić
nam,
lětach,
ludom
kulturow
koparske
hornjoserbskeje
eksistuje
dwacetych
domjacej
brunicy
bohaće
Slepjanskim
Rakecy
Přitomni
Matej
Fest
Erzieherinnen
Deine
Bych
Brězanec
Bevölkerung
Berlinje,
Ausstellung
37
1983
1972
##A
łopjeno
zwučenym
zwuraznja
zezna
wuwjedźenja
wuchodneje
wjeselu
třećinje
twórbje
trěbnych
tamnišich
tafle
swjedźenske
staja
sněha
sněh
skeho
ruma
roman
płaćizny
profesora
pomocnicy
pomjatka
někotrym
nazymske
namocy
nakład
měšćanske
křižom
jednore
jedem
funkciji
europske
domizna
boja
bjesadu
Wonaj
Wochen
Wito
Skala
Młynkec
Moskwje
Malink)
Friedrich
Dźe
Dopominam
By
Bezug
Bericht
Auto
Alfred
2016
150.
1)
##ś
##we
##on
„Je
znajemy
zhromadnu
zajima
wužiwachu
wutwar
wjesć
witachu
winu
tu-
traš
statna
sechs
raz,
ranja
přednoškow
prozy
poboku
nětčiši
njebě,
młódši
młodźinskich
milion
l
hódnoći
hudźbna
hoberske
finalu
fachowcy
dowola
centimetrow
bjesada
bestimmt
auf,
archiwje
Wulkej
Verwaltung
Tomasz
Slepjanski
Němcami
Najbóle
NDR,
Jězusowe
Jens
Janu
Ingrid
Ela
14.30
##ra
##chen
##an
čłona
Čorneho
überhaupt
zwoprawdźenje
zjawy
zbóžnoprajenje
zbliska
wěsteho
wójsko
wutwori
wuradźowanju
wrotarja
wotmołwa
wjetšinje
wjesce
widźomnje
tydźensce
tuto
tafla
serbskosć
samozrozumliwje
respektiwnje
prawej
planje
pjenjezami
nawjedowanje
nastawki
najlěpšim
na-
młodu
morju
modlitwu
mataj
kommenden
hłowy
hudźby,
hudźbnu
fachowych
elementy
dóstać
dwora
dožiwjenjach
dołhu
domom
delnjoserbsku
dalokož
chcyli
bieten
Zdarsa
San
Partner
Milbradt
Lehmann
Knjeza
Jugend
Hdźež
Einrichtungen
Druzy
Diskussion
C
Bitte
2020
1976
1970
##š,
##owanje
„Via
Žiwjenje
čemuž
zymu
zwar
zboža
započatk
zamołwita
wšelakim
wuchowanje
wojak
wječorku
uniwersita
tykanc
trjechi
stwě
stwy
stało,
spóznać,
slědźenjow
přidruži
pěseń
publikacije
protyku
poćahow
powšitkowne
pjatka,
nuzu
najwjetša
najstarši
mjenowaneje
mjenow
minjene
krajna
krajinje
kotrym
katedrali
jutrownym
jednanjach
hódnoće
hrodu
hosćićel
genau
dźěłowym
dwurěčnosć
dołholětny
božej
Wulkeje
Wottam
Wolfganga
Wjacore
Strukturwandel
Stary
Sonja
Runočasnje
Nowinach
Musiat
Kozel
Juro
Grundschule
Eure
Ergebnisse
Entscheidung
Buk
Božo,
Berlinskim
Berlinskej
Art
1962
žanej
šěroki
Čornak
zjězd
zhromadnemu
zdoby
zapósłancy
zahajichu
wěda
wysoka
wuznamneho
wuměłča
wosebitych
weiterhin
wašnjom
typa
tworjaceho
towaršnostnych
syć
swobodnym
susodnej
setzt
sekcija
radźićel
přišoł
prawo,
postrow
pomocny
napohlad
namjetowaše
liča
krasne
konferencu
komuny
kemšerjow
informaciske
hódnotow
hornjo-
hinter
großes
gmejnow
fašizma
dźiwadźelnicy
dźiwa
drastow
dołhej
dopokaz
dokoławokoło
deinem
aktiwny
Wšě
Theater
Stawizny
Ryćer
NDRskim
Milan
Lědma
Kocha
Freude
Bedeutung
Arcybiskop
80.
1965
160
##stwo
##a"
žně
šofer
zwotkel
zweisprachige
zjawny
zakaz
wužichu
wotkazanjom
wonkowneho
wobjed
wječeri
wjesołe
sportowych
skutkownosć
sadźby
reformu
přinoškami
płaća
pytaše
procentami
pro
pozicije
postajenja
orchestra
njedawnym
nazymje
natwarichu
mnóstwo
mjenowanu
katastrofy
hłubšo
dwurěčnej
družin
delnjoserbski
chiba
budź
bohudźak
bjezposrědnje
basnicy
barby
akciji
adwentny
Zentrum
Zahl
Warum
Universität
Słowjanow
Runja
Roman
Přednošk
Pjenjezy
Nacht
N.
Měškank
Köhler
Krawca,
Hra
Duch
Dobry
Africe
Abend
96
2:1
1927
(po
##um
šulerki
wěsty,
wysokich
wuměłskeje
wuchadźišćo
wołtar
wosobu
wobora
wobhladachu
wobdźělnika
wjeseli
vielleicht
tonow
słowjansku
swětowym
steji,
spěwy,
spěchuje
sadźbje
přećelam
pućowanju
putnicy
produkcije
procesu
prezidija
prajene,
prajene
połna
pokoj
němčinu
njezamó
nałožkow
nadrobnje
měri
móhli,
leža
kulturnymi
kulturelle
jutrow
intendant
hr
hin
geben
fachowcow
dźiwadłoweje
dopomnić,
docpěć,
cyłkowny
chwilu
chcych
bleiben
Wosebite
VI.
Traditionen
Rechte
Ralbicy
Njebjelčanskej
Naši
Literatur
Hermann
Europskeho
Erde
Dźakowano
Dobre
Detlef
Bosćij
47
2)
1966
1936
17.00
04
##šo
##sć
##sce
žiwje
Žadyn
štwórty
šefa
čisła
čakaja
zhonichu
zaleži
zakónčenje
wukonja
wonu
wobłuki
tamniše
syły
superintendenta
skónčenju
skutkowanjom
romana
republice
přiroda
přikład,
pytanju
putniske
produkciju
prjedownikow
potrjeby
pokazka
podobny
pochad
of
njeńdźe
njebychmy
nawopak
napisane
mandźelskeho
macht
lětdźesatkow
lěsa
lubeje
knižka
jednotliwcow
japoštoła
gar
funkcije
dźěłaćerjow
dotalnym
chorosć
a,
Zaso
SLA,
Róžeńčanskej
Radworskeho
Polacy
Njebjelčic
Měto
Modlimy
Madlena
Kurtas
Horach
Frido
Freundin
Fischer
Dawidowski
Darüber
Antrag
80tych
40.
1984
1935
##oweho
##njom
žiwjensku
čitamy
činja
ćežkej
změni
wěstotu
wólny
wotrězku
wotpowědnu
wotměwaja
wokrjesne
wobornicy
wašnjom,
unterstützen
twarić
tebi
sćelak
swěće,
swědkow
swjedźeń,
swjatu
strachi
spěchowanskeho
sotrow
přisłušeja
přewzać
přewjedźenje
přebywanja
priwatnych
nazymski
namakał
młodźinje
möglich
moderny
mjenowana
lěto,
kwaliće
euer
e.
duša
chodźi
chce,
běrowje
Wotrowa
Serb,
Salowski
Personen
Njebě
Nawku
Nadźijam
Mětšk
Marian
Jeder
Halle
Gespräch
Besuch
Adolf
1921
(kaž
##ši
##ń
##owych
Čěska
zwjazka,
zhromadnych
zdaloka
zastup
zarjadnistwo
zakładna
wučer,
wuznamje
wuwzaća
wustupy
wichtig
třećej
trěbnu
swójskimi
suche
strukturow
stari
stajić
slawistiki
ruski
rjadowanja
přewrót
přeswědčiwje
přesadźi
prócowanjow
prašeć,
posmjertnin
njewě,
njejstej
niemand
natwarje
knjezej
jemu,
hranicu
heutigen
gerne
financne
docpěć
biskopej
arcybiskopa
alkohola
Zhromadne
Wšelake
Superintendent
Sebastian
Rjeda
Krala
Kamjenski
Instituće
Herz
Gesetz
Gesellschaft
Friedricha
Drježdźansko-Mišnjanski
Domowinske
Běchmy
Awstralskej
60tych
##owym
šansa
Šewc
zwosta
zjaw
wšěm,
wóčko
wučerskim
wučerski
woznamjenja,
wobrot
wobrazom
wobhladachmy
wobchadźe
towarstwow,
sćěhowachu
swjatki
sumu
stawiznow,
sobudźěłaćerka
sedźi
rejwarjo
regionalneho
ratarstwo
protyce
prašenja,
počasu
potrjebu
poskićuje
politische
planuje
pismje
němčinje
njebudu
naprawow
nacionalsocializma
městna,
myslach
mjezynarodnej
kulturellen
krajow,
knježerstwu
kenž
ihres
hladanje
genannten
firmow
du,
deiner
cyłkowne
by-li
brigady
Zapłać
Winter
Tom
Raum
Polen
Paulus
Meškank
Leiterin
Křesćana
Jugendliche
Hanki
Franz
Barta
Barbara
46
1981
180
(2.
štomy
znatymi
zapis
wědomostnje
wěc,
wójny,
wustawkach
wurjadny
wotbłyšćuje
wosobinski
wobydlerjam
wjetšiny
wikar
techniske
swětej
swjatočnje
susodneho
stało
stawizna
starać
srjedźna
ruskeho
rumje
radnicy
přewzał
přewod
přeju
přehladku
předwidźane
problemami
problemam
praktisce
nimam
naspomni
muž,
mi,
kubłanskeho
krasny
knižki
jězor
inteligency
hotela
forum
faru
domje,
daty
cyrkwjach
chórowe
biblija
Znaty
Wšudźe
Wobdźělnicy
Viktorije
Tema
Sydom
Paška
Młynk
Lětuši
Ju
Detlefa
Delnjoserbskeho
Augen
1973
1942
1924
(abo
##ło,
##w,
##omaj
##emi
železnicy
Štwórtk,
čěscy
zrěčenju
zańdźenych
zamóža
zahrachu
wěnowany
wzajomnje
wuži
wužadanje
wustawkow
wuspěšnym
wuspěšny
wobsydstwo
weiterer
uns,
twarjenjow
twarje
turněra
tradicijow
stawizny,
starobu
spožča
sonst
serbskorěčne
rozsudne
rjec:
richtig
režiser
přihotow
přehladka
přechod
pytanje
prědku
poražku
pincy
němskemu
nochcedźa
njezbožo
nabožneho
materialije
kubła
kongregacije
jubilejej
hrajnym
hrajny
gehe
europskej
entsprechende
ebenso
dobychu
cyrkwinska
cuze
bisherigen
Worklečanskej
Wojerowski
Stanisława
Soldaten
Serbskeje,
Pólski
NPD
Mittelpunkt
Malink,
Laduš
Kerstin
Jenč
Gemeinschaft
Energija
Deutsche
Daniela
Chróšćanski
Bürgermeister
Borbora
Bemühungen
Bau
70tych
43
350
1977
##jej
čitać,
zwjazana
zapadźe
zakładnu
zachowanju
zaběraja
wěčne
wótca
wopytowarjemi
wjacori
u
tamni
takle:
taflu
słowjanskimi
srjedźnu
spytaja
sadźbu
rozsudźić,
přećelske
předsydźe
předstajenjow
pěstowarnju
pěstowarnjach
putniskej
powołanskim
poswjećenju
pomniki
pokazał,
perspektiwy
nikomu
narodnemu
napismom
morgen
monsignore
mišterstwo
meju
lisćiki
křesćanskim
kraj,
konto
komorny
hudźbu,
hospodarskim
hodź.,
gmejnskeho
filmowe
ewangelij
eher
duše
dopóznaća
diecezy
cuzy
běše,
Wobraz
Třoch
Tanja
Studenten
Sinti
Rěč
Richard
Rafael
Pólskej,
Muttersprache
Minister
Millionen
Mikławšk
Kasper
Hudźbnje
Franca
Danach
Boha,
Bedingungen
Awtorka
85
52
1931
1912
##ić
zweite
zdawna
załožboweje
započnu
zajimowanych
wučerjom
wuznaće
wupraja
wudał
wuchoda
wsow,
wokno
w.
třěšneho
třećeho
tuž,
słowniku
sławneho
sympozij
spisał
redakciju
póstnym
prócowanju
problematice
princip
pozdźiši
po-
patra
organist
nutřkownym
njese
měšćanskich
modlenju
luda,
kubło
kritiske
konsekwency
ideja
hale
financny
filmow
dźěchu
dóšło,
dróha
dosć,
adresu
Wysokej
Wosebita
Walter
WITAJ-Sprachzentrums
Třeći
Sinne
Ralbičanskej
Radworska
Radworju,
OKTOBRA
Nazajtra
Narodneho
Musik
Milenka
Kobjela
Katrin
Hartz
Feuer
Dołho
Dank
Budyscy
Bernhard
95
1929
(SN
(CDU),
##nej
šěsćdźesatych
šulu,
čaru
ćělne
ćahu
ziemlich
zeńdźenje
zajimawa
wurjadne
wukonješe
wotpowědnym
wosadźe,
wopušćić
wjele,
widźa
traće
tradicija
tehdyšej
słužić
słowjanskej
sćěhowace
stafli
spěwanju
spisow
samsnu
róle
rosće
přizjewja
připrawy
přiběracej
přewjedu
próstwa
premjerje
pokazki
pjatnaće
naprašowanja
nanom
městačku
mišterstwach
kupcow
kroku
koparjow
kolegow
knihow,
kaum
kapałka
kamjenja
je:
hólčec
hektarow
dožiwja
darauf,
centralne
braška
Welche
Smochčanskim
Rěčnik
Rječcyna
Regina
Ob
Natur
Mjeno
Landes
Jahrhundert
Drježdźanskich
Dny
Bestandteil
Ameriki
1975
1928
17.15
03591/
"Die
##maj
„Hdyž
župje
Šule
Šołty
łopjena
Čěskeje,
zyma
zjězdźe
zhromadźi
wužiwaše
wužiwać,
wučomnikow
wuradźowanja
wuměłstwje
wuměłstwa,
wulkotny
wotewrjeny
wosobinskich
wobroći
wobchować
wjeršku
tamneho
swědomiće
swjedźenjach
stow
stellte
spěwarki
sprawnosć
sprachlichen
sporta
slědowace
sezonje
sekretara
sedźo
rozmołwach
přisłušeše
pozdaću
postrowi
poskićichu
organizaciju
nochcu
nawjaza
nana,
najnowše
mólby
modlitwje
listow
kraju,
knihach
jenak
hódnoćenju
historiskim
einfach
dźiwać,
dwurěčnym
dwurěčneho
dochodow
bróžni
biskopska
allein
Vereins
Udo
Stück
Slepjanskich
Satzung
Rakec
Přeju
Publikum
Njebjelčanski
Njebjelčanskeje
Mnichowje
Kontakte
Kommunen
Jutry
III
Hórnika
Beratung
Anja
##I
“Z
ćěłom
zwyšenje
zasłužba
zapadneje
zajimawe,
wšelakorych
wosebitosć
woprawdźite
wichtig,
směrnicy
slědźerske
skutkowacy
schadźowance
sahaja
rumnosćow
rjekł,
razow
přikaz
přihladowarjemi
přećelstwo
přesydli
powěda,
pomhaše
politikarjow
parlament
nowinarskej
njejo
nawody
měšćanosty
městačka
myslu,
mustwu
modlitwy
mocy,
lóšt
křiže
kwadratnych
kralestwo
komiteja
knižce
klawěr
kantorki
jano
farskim
fachowe
dźowki
dźiw
dołha
delnjoserbsce
byštej
bohatstwo
bohatej
blišim
bibliske
bibliotece
Wopyt
Wjenk
Wissenschaft
Weronika
Waršawy
Verbindung
Vatikana
Sachsens
SEPTEMBRA
PÓNDŹELU,
Pawołej
Nutzung
Njedźiwajcy
Njebjelčenjo
Mehrheit
Mark
Kulturne
Krawža
Knjeni
Kindertagesstätten
Jürgena
Jez
Groß
Einige
Chrósčanskej
Beide
AWGUSTA
50tych
49
1963
1848
žórłow
žiwu
šěroke
šulerjow,
škiće
šansu,
Łužiske
čwak
załožichu
zapósłanca
zapisa
zajimowaše
wzać
wunjese
wobšěrnym
wobsedźer
wjetšim
teritorija
temow
słownika
sydomdźesatych
stil
stawizniske
spěšnišo
recht
přitomnosć
přirady
pućowanja
prašenjemi
praktiske
politiskej
politikar
pokročowanje
pjenjezy,
pady
narodnosće
mě
möchten
lětny
lubje
liegen
jednotliwca
jedneho
interviewje
inscenaciji
folklorneho
finale
europskim
ehemaligen
dźěćacym
duchowneje
doraznje
chcyjo
Worklečanskeje
Sotra
Referent
Puć
ORB
Měrćinom
Móžu
Maks
Liana
Israel
Instituts
Herrn,
Grund
Dörfer
Bundesregierung
1926
##osće
„zo
žohnuj
štyrceći
čłowječe
časopisy
časopisow
zwiskow
znatej
zemja
zeigt
zběra
zaspěwachu
zaklinči
wšitko,
wólbnym
wyša
wutrobne
wočow
wobstara
wobnowjenju
wobhladać
wjeseli,
tónraz
twoje
trajace
srjedźnym
sportowcy
spochi
spisowaćeljo
saněrowanje
rěc
róžka
r.
přiwza
přiklesk
přihotuja
předstajenjom
pytachu
praša
pisał
napoł
musste
musst
mindestens
literarna
kursy
jede
informacija
hłowa
gymnaziasća
größte
gmejnu
financowanje
etata
dźěćaceje
dóstachmy
dołhodobnje
doda:
Wjes
Stimme
Serbstwo
Schramm
Redakcija
Pětš
Pančic-Kukowa
Nysy
Nun
Mětška
Mějach
Mnoho
Koparski
Kirschke
Kamjenska
Johanna
Joachima
JULIJA
Helbig
Dwójce
Drježdźan,
Americe
Aleksander
1982
1918
##za
##a)
žadachu
štw,
Čorny
ćeta
zwólniwosć
zbožowny
zapřija
zahoritosću
zaběrać
wurězki
wuměłsku
wozjewi,
wotpočink
wobšěrnu
wobsydstwa
wissen,
widźane
turizm
sydlišća
skutkowachu
rjaneho
rejwanskeje
regionalen
přiběra
přerěznje
prowincy
połoži
politisku
njeměło
nawrót
natwari
měšnicy
mužej
letzte
kapałku
kanclerka
jednaše
hry,
hrodźišću
hladanja
fararjo
dwurěčneje
dojednanje
dekanatneje
dalokeje
bohatosć
aktualnym
Wettbewerb
Stunde
Statnik
Schülern
Schneider
Plan
Pawka
Nowu
Nowaka-Njechorńskeho
NOWEMBRA
Mk
Mjenje
Menschen,
Lejna
Kilank
Judit
Jej
Januar
Imiš
Fryca
Dyrlicha
Caritas
CSU
Boskoweho
Bjezdwěla
Berlinski
900
39
1969
0
##rjo
žonje
Špitank
Łužiskeje
zetkachmy
zastupowacy
zapisane
za-
wěstosću
wuhlad
wosobje
woneje
wobzamkny
tymi
torhošću
swójbneho
studentami
starobnych
starobnej
spěchować
sieben
sich,
sedźeše
schönes
schöne
rjemjeslnikow
radosću
přišli,
praweho
praksu
prajił:
počachu
powědaše,
potomnikow
posmjertniny
parka
nochcyjo
najwyši
młodostny
městom
městnosć
móžny
maćerju
lětušu
koho
jastwje
hosćenc
fronty
filmje
dźiwadźelnik
dóńt
dóstali
byštaj
bilden
atmosfera
anderer
all
Wirtschaft
Vorhaben
Treffen
Sorabistik
Ruska
Podstupim
Otto
Maćija
M
Leitung
Karla
Jörg
IV.
Frankfurće
Entscheidungen
Druheje
Delany
Delanach
Dass
Bernadet
Anwendung
Anton
56
53
18.30
110
##ng
žónske
šefredaktor
Šunowje
zwuraznichu
zwjazkow
zrodźi
zranjenja
znaja
zjednoćenja
zastojnstwje
zajimawych
wólnym
wutory,
wotstronjenje
wopytom
wopytachmy
woblubowany
wobdźělenych
wjedu
twarskim
tun
tajke,
sćěhuje
starosći
spominaše
rěčnicy
ruskich
regionow
připóznaća
přebywanje
poswjećenje
postajenje
pjaty
pisa,
organizatorojo
njejsy
nehmen
najpozdźišo
nadpismom
modlenje
modlenja
mjeńšinu
lyriki
krótkich
kritizowaše
kotrymajž
konflikt
hustohdy
hospodarskeje
hišće,
fakt
eigentlich
dźěsći
dźensnišeje
dźakować,
dušepastyr
dołhich
dachmy
biblioteki
Wěste
Wosom
Wege
Weclich
Wašim
Tochter
Sulšec
René
RCW
Partei
Pančicy-Kukow
Möglichkeit,
Möglichkeit
Mnichow
Ludmile
Ledźbor
Laufe
Kowar
Hórkach
Hendrich
Gmejna
Dynama
Dawid
Choćebuzu,
Beginn
žurlu
žada,
šulska
Češa
zwěsćichu
znjewužiwanja
wyšnosć
wučerki
wuměłče
wotměja
wosobinow
wobkrući,
wobchod
wjerškow
winowatosće
třěli
typiske
tworjachu
telegram
syła
sylnej
spěwny
solchen
scenu
rezultat
přirunanju
přikładom
prócuja
powědančko
powědančka
planuja
někotrehožkuli
njesměmy
namołwu
najwažnišich
nahe
nabožinu
mandźelskim
ležownosć
kralow
kopańca
jutrownej
jatby
jasnym
iniciator
hłuboke
hudźbnik
hosći,
hodźina
gymnaziastow
gremij
gmejnskim
generalneho
europskeje
dźiwadła,
drjewo
dpa
dafür,
cyłkownym
chodźa
budźetej
aktuellen
aktuelle
abonement
Ulrich
Texte
Tajka
Schritt
Schleifer
Pjech
Organisation
Nyšpor
Njewěm,
Lětuše
Kamenz
Josefa
Johann
III.
Holan
Gerharda
Franciska
Fach
Chemnitz
Budźe
Beata
Auftrag
200.
1967
140
10.30
(FDP)
(3)
##]
##se
##ko
##el
“Na
žanym
łužiskeho
čestnohamtsce
časopisach
čary
ćežišćo
zetkaja
zawody
zastupjerja
zarjady
zapósłanča
wuzběhuje
wowku
wosobina
wohnjowych
wobsteja
wobsadźi
wobrubichu
wobdźělić
třom
tworješe
swoboda
srjedy,
spěwnych
sportowym
socialnje
slědowaše
skićeše
skeje
sezonu
sewjernje
rozmyslowanja
přistupi
předwidźane,
předsłowje
pěstowanje
połnocy
powědki
politiskeje
piwo
njewšědny
njewšědnje
nje-
narowny
najwjetšich
młodźinskeje
móžnym
móžne,
modlitwa
mjezynarodneje
milionami
lětstotkow
lěkarja
literaturu,
literarnej
křesćanskej
kwalita
kubłanskich
kruchi
koparskej
koncertach
kompoziciju
klawěrje
jědnatku
južnje
hłuboki
dźělach
dźerži
dóšło
dostojnosć
dobrowólnje
dali
daj
bytostne
bur
bamžej
Zollitsch
Wšitkim
Wšak
Wulff
Wosadny
Verantwortlichen
Trojicy
TELEGRAM
Serbowki
See
Rolle
Radworskim
Pětrowym
Oberlausitzer
Nazymu
Najwjace
Nagela
König
Kor
Jeno
Jednota
Internet
II,
Großmutter
Europäischen
Dźiwajo
Dnju
Delnju
Chrósčanskeje
Anna
(Jan
##ujo
##ka,
županka
žiwych
žiwy,
štwórtka,
Łužiskej
ćežow
zymskich
zwjazki
zetkanjach
zepěra
zboka
zarjadnišćow
zapada
zady
zachować
während
wuši
wosebiteje
wokolinu
wjaza
winy
unija
twórbach
towaršnostnym
susodow
spěwar
spisy
socialneje
sewjeru
sebi,
schadźowanju
rjadach
pólska
ponowjenje
policiju
podał
partnera
organizator
nowe,
njeznate
njewšědne
naspomnjenja
naprawo
namołwješe
najwjetšu
młyna
měnješe,
lajskich
kna
kasy
jědźi
jednotliwym
internaće
hromadu
hačkuli
gefördert
farar,
europäischen
dźěćaca
dźenik
dopokaza
dlěšim
chowaja
byća
blidźe
aspekty
Ziele
Zajim
ZDF
Wuježku
Wotewrjenje
Wospjet
Warnoćicach
Völker
Trěbne
Titel
Straße
Stareho
Rjad
Regionen
Podstupimje
Podobne
Oberschule
Noch
Michałkowa
Maßnahme
Mariju
Hórki
Francoskeje
Engagement
Dörfern
Dialog
Bewohner
Anzahl
Ab
15.00
(1)
##kim
##ji
##ik
##cych
žiwi,
čakaše
Čěski
zwólniwy
zhladuje
wünsche
wjesnu
wjedra
widźiš
tut
trjebaše
tradicionalne
towaršnostneho
telewizije
tehdyšich
słuša,
swětowa
sudnistwom
stracha
starše
spis
róla
ruskim
rukopis
rozšěrjenju
rjanymi
přisłowow
přeće,
přednjesechu
prawniske
połoženja
podłožki
njetrjebamy
nawodnistwo
nastać
nanej
nan,
namakaš
nabožina
měšanych
mzdy
morjo
mjezynarodnje
liniju
lang
křiž,
krótkodobnje
jewišća
hinašeho
hilft
guter
fotami
financielnje
dźěćo,
dorosćeni
doda,
chorhoje
bibliji
barbu
bamžom
acht
Vorschlag
Uhr
Toni
Tagen
Sulšecach
Sitz
Scholze
Rownom
Reihe
Naposledk
Muž
Ludwiga
Lucija
Jurk
Jahrhunderts
Hartza
Grojlich
Gerd
Freitag
Einen
Drježdźanski
Brief
72
1974
13.00
00
(za
##wu
##ar
„K
“Smy
šěroku
łužiskim
čitachu
čestny
čarje
zło
zwěrjata
zarjadowanja,
zahrody
wěriwym
wuswobodźenja
wuskutk
wozjewjene
wopřija
wohnjowa
wobkedźbować,
wjeskach
twórby,
tu,
stejitej
stała
starša
socialna
smyčkowy
smjertnym
signal
sadu
rěčachu
rozsudny
reformje
razu,
přizjewi
přichilena
pěstowarnja
procesa
poćahach
pomhaja
pokazaja
němsce,
njetrjebaja
nim,
negatiwne
narěče
měru
móžnosćemi
myslenje
muža,
kubłanskim
kolega
klinči
karty
jědź
jara,
innerhalb
hotelu
hosćićeljo
hoberski
historiskeho
dźěłarnistwa
druhim,
dowjedźe
delegacija
darami
chwile,
chcetej
bald
Zweisprachigkeit
Vorschläge
Sy
PŘEDŹENAK
Landkreises
Krajny
Kola
Gericht
Drježdźansko-
Choćebuskej
Božena
Bereits
91
65.
##.,
##sa
##ie
“W
Šleska
łužiskej
čestneho
zmylk
zhromadna
zasadne
započał
wšemu
wóčkom
wzajomnosć
wužitk
wuswobodźenje
wurosće
wotpokaza
wjacekróć
wabjenje
towarstwach
słušatej
stärker
staršich,
start
starownje
stark
sportowcow
spielen
samsneje
samostatny
rěcy
rozsudźi,
rozestajenju
přewostaji
přebywa
poskitkow
pomjatku
organisiert
nětko,
někajku
něhdyša
nosy
njeměł
njejapcy
naćisku
narok
nahm
n
móžnosće,
moderneje
meja
małymi
materielne
mandźelskeju
lětadła
lěs
lubosć,
ležownosći
leben
křižowy
křesćansku
kupy
kupi
kožu
kniharnje
klar
kartu
kapitl
hłowje
generaciju
gegeben
ewangelsku
entwickeln
energiju
dóstawa
drohotne
dołheho
bydlacy
alter
akty
aktualnych
aktiwnych
Wjeńka
Wjeselu
Wjelkowje
Westerwelle
Vogel
Verfügung
Texasu
Stunden
Sprěnja
Reich
Paula
Njeswačidło
Nadobo
MSV
LMBV
Knježerstwo
Kandidaten
Jězusoweho
Jězusej
Gottesdienst
Dyrlich,
Chcedźa
Bewahrung
Albert
;
91)
90tych
67
1945,
17.30
16.00
##two
##a“
„Što
žónska
žurle
Židźa
Šef
ćišćernje
złoty
zrozumjenju
zdruha
zajimaweho
wědomostneje
wyšim
wučerjow,
wuznamjenjenje
wustaw
wuběrku
wosomdźesatych
wodnjo
wobkedźbować
wobdźělnikam
wječorka
wječor,
wjerški
wjednik
widźał,
tekstach
tabulce
stwa
strukturu
strowe
strašne
staciji
spomóžnje
spielt
skupina,
skradźu
schadźowanja
rěčnistwo
rumnosći
rozrost
rjanosć
rejow
přirodne
přinošuje
přepytowanje
předewzaćelow
praja
organizacijow
napadnje
nadběhowar
mali
lětnikow
lisćiny
lisćinu
ležownosće
křesćanskeho
komunow
jědźechmy
jubilara
instituta,
hladać,
hibanju
fotograf
formow
dołhož
dowol
domach
dnjom
daß
chceš
burske
awtorki
awtodróze
Wulku
Tydźeń
Swójba
Stuttgart
Slepjanskeho
Sakskeje,
Sache
Róžeńčanskeje
Rozsud
Ralbičenjo
Přizamkny
November
Narodźił
Najlěpši
Měnju,
Morgen
Leńka
Krupki
Kinder,
Jeju
Guido
Glauben
Erhalt
DS
Bulanka
Barće
BLZ
Angelegenheit
3:0
1971
##k,
ćišćom
zwoprawdźenju
znaći
zdaše
zapřijeć
zabawu
wšelkich
wěmy
wědźa,
wědomy
wójnske
wuhladaš
woła“
wobraz,
wobnowjenja
wobhladać,
tutymaj
tuteju
tuchwilne
słužbach
synoda
swěrnje
spěwanjom
skrućenje
serbskosće
samozrozumliwe,
samostejacych
rysowaše
rysowanki
rejemi
přińć,
přiwisnikow
přijomne
přichodneje
přichilnosć
přepodachu
pólskimi
prezidentej
prajić
partnerow
nutzen
njehodźa
nałožowanja
nastawkow
nalěća
měještej
morja
mjeńšinowe
mandźelstwo
lětušeje
ludnosći
kónčny
kulturnemu
konje
kann,
instancy
ilustracije
hrać,
horstka
hladać
entwickelt
dźenika
dwórnišću
dobył
dobremu
dawk
chodźachu
bratřa
bibliju
Zeit,
Wšědnje
Weil
Wald
Trochu
Thomasa
Spěwarske
SPOMNJEĆE
Róže
Rainer
Přewšo
Praskeho
Parisu
Nětk
Nicht
Mir
Lehrerin
Kölnje
Južneje
Herzen
Hermaš
Helmuta
Erfolg
Dźakuju
Delnjoserbski
Delnim
David
Choćebuski
Birgit
64
63
32.
20.15
...''
##!)
##ho,
##den
„Po
Žitawje
Šmitec
čuješe
Čitar
zymske
zwjazkowa
zjawnej
zazběh
zarjaduja
zakonje
zahajenja
zabawny
wšitcy,
wědomostna
wusyłanju
wupada
wuhlady
wotmołwi:
wosadna
wobšěrneho
wobsahowe
woboje
woblubowane
wobdźěłanje
wjedźenje
weniger
voll
tradicionelnje
towarstwom
terminy
tafli
syći
swjećachmy
staršeje
stachu
specielnje
slěd
skrótšenja
samostatne
rěčacych
ratarske
přišło,
přistajeni
přełožkow
přezlětna
produkty
posmjertnych
porěči
pokazujo
podać,
planowanje
někajkim
něhdyše
nazymskim
nastorki
nastawka
namakać,
mzdu
myslow
myslić,
lassen
kwasny
kultusoweho
kubłarki
kruta
kontaktow
kemše,
hundert
hordźi
hodownym
farske
fahren
erster
ehemalige
dźakowni
dožiwili
deleka
cyłkowneho
cyrkwinsku
božich
bliskim
bekommen
awće
Zahrodnik
Wuslědk
Wowčer
Wosebitu
Wosadnik
Viktoria
Vielleicht
Tereza
Roberta
Radio
Pječa
Petr
Někotryžkuli
Neue
Muki
Mateja
Ländern
LEAG
Königswartha
Krawc,
Interview
Initiative
Harig
Europu
E
Dinge
Dietera
Błótach
Budyšan
Budestecach
Bertók
Berlinskeho
Ben
Bedarf
Awstralskeje
April
1900
(R)
"Na
##ě
čłowjeskich
čěšćiny
časej
Čěskej,
ČSR
ćehnješe
zynki
zrozumi
znatu
zhromadźenstwa
zešiwku
zeńdźenja
zetkanišćo
zasadźi
zajimawu
wšojedne,
wušoł
wuski
wuhlada
wuběrny
wotpočuje
wokrjesnym
wobstejnosćow
wobličo
wobdźělić,
wjesoły
wjesnjanosty
wjacorymi
wino
třećina
třeća
tworić
ten
słyšeć,
słowo,
swětle
swěrni
swójbje,
swjećić
swjedźenjom
suma
studowacych
stejišća
stawizniski
stasi
staršiskim
spytał
soboty
snědani
sebje,
rjadowni
razej
ratarjo
přihladowarjam
pytać,
psychisce
prelat
prawje,
politiska
pokazku
pisomne
pisanje
papjery
něšto,
najwjetšim
nade
měła,
mytom
mužow
mocami
mjezu
mišterstwow
melodije
lońšim
krutej
kritika
jeničkeho
hospodarsce
historiskej
grafiki
gestapo
genutzt
dźěchmy
duchownu
dožiwił
delnjoserbšćiny
chowancy
buštaj
budźe,
aspektom
aspekt
antologije
aktiwne
adwentne
Z.
Wěriwi
Słowakskej
Schalke
Rěčny
Premjera
Planowane
Młodźina
Móže
Milena
Mała
Maćicu
Lange
Hłownje
Hłowne
Hubertus
Hansa
Gründung
Gabriel
Europy,
Europskej
Božemu
Bosćana
Berlina,
Aziji
Antona
Alter
3:1
27,
170
##r,
##nik
žona,
Žona
činił
złožuje
zwučowanja
zastupnik
zarjadowachu
zarjadniskim
zahoritosć
zachodźe
wěriwymi
wyšnosće
wuńdźechu
wusud
woženi
wotměwachu
wotewrjena
wostał
wopytach
woměrje
wohenju
wobmyslenja
widźachu
třiceći
tradiciju,
technika
sćěh
stejnišću
stajne
spěšne
spokojom,
rozšěrjene
rozsudźić
přišli
přednoška
putnisku
prědowaše
poslednjeje
podobnych
podate
pjenjez,
parlamenće
oktobrje
nětčišim
nyšporom
nohi
njerěka,
njedźelach
njedostatki
nastaće
nastaća
nalěwo
naladu
nakładne
nabožnu
modernu
ministrantow
ludowymi
lesen
kwasa
kuble
konja
konflikty
koncerna
koncern
koncentraciskeho
jutrowneho
jutrach
juhu
hrěchi
haće
fordert
eng
dźowce
duchownymi
dožiwił,
dočasnje
deutsch
daran
běłe
burow
bekannt
barba
außer
abatisa
Wyši
Wsy
Wenden
Wegen
Tür
Tónkróć
Tradition
Sorben,
Ralbičan
Pódla
Prüfung
Oberbürgermeister
Njejsu
Młoda
Kubłanski
Kotry
Jerusalemje
Heiligen
Europska
Ergebnis
Dein
Chrystof
Annett
90.
1903
12.30
„Ja
„Die
štomow
špatne
čiłe
čini,
zwěsćić
změnić
zmužitosć
zhonić,
zemrěł
zemrětych
započeć
wěcy,
wuspěcha
wuskutkuje
wurjadnym
wuměłstwo,
wulki,
wožiwjenje
wozrodźenja
woznam
wopyty
wopraša
welchen
welchem
wažnym
tychle
treffen
tradicionalny
telewizija
tehdyše
sympozija
sylna
swjećacy
sowjetskich
serbšćiny,
serbskimaj
sejmika
přilubi
přiležnosć
płaćić
pěsni
pri
prezentuje
prajene:
potrjecheni
potajnstwo
pomocnikam
pomjenowanja
poezija
piwa
nowinu
njemało
nimmt
nastawa
naležnosćow
modernym
mjezsobne
meisten
lektorka
kěrlušemi
klubje
kapitan
jährlich
jednory
impulsy
hesła
gemacht
ewangelija
energije
element
dźiwadło,
dźesatki
dwoje
drastach
dowěra
dostojnje
dokumentow
dobyli
delnjoserbskim
daher
bratraj
basnjach
basnikow
aktiv
agentura
Zda
Wahl
Třo
Stephan
Starym
Srjedu
Sowjetskeho
Slepoho
Rates
Ralf
Nowak,
Njepilic
Njemóžu
Nawodnica
Nabožne
Mato
Marijinym
Lětuša
Langa
Kurs
Kocora,
Kenntnisse
Herbst
Herbert
Gymnasiums
Gnade
Georga
Frieden
Franka
Deutschlands
Bücher
Bischof
61
41
##jenje
##da
„Chcemy
žadosć
štučki
Łaz
čłowjekow
čitach
časowych
Čechow
zwěsća
zwyši
zwiska
zastupuje
zabyć
wědźa
wědomostnej
wuzwoleny
wuwabi
wudać
wudawaćel
wuchod
wotpowědnej
wopytać
woprawdźitosć
wodźenje
wobydlerstwo
wobsedźi
wobrazy,
wob-
widźał
wichtigen
unterstrich
uber
trägt
tendency
tematice
słowami:
stworił
starać,
staraja
spěwow,
sprjewineho
sotře
sodass
sobuskutkowacych
schadźowanje
samostatnje
sah
sadźi
rozmołwow
reformacije
pśi
přećelnje
přewinyć
předmjety
pěsnjow
prawdu
powołanskich
porow
popołdnje
popołdnja
poměrow
poměrach
pomocne
podpěrowaše
podawku
pobychu
pismowstwo
nětčišeho
nańdźe
narodnosći
napisać
najnowšim
nadźijomnje
młodźinskej
mustwom
mehreren
maćeršćiny
lětu
lěkarjow
luba
kónčnej
kuta
konteksće
koncertom
koncert,
knihownje
klóšterskim
kajkosće
jeničku
jednanju
hotowy
hole
haty
generacije,
fördert
freue
dźěćacej
dožiwić,
dosrjedź
domjaceho
dokal
dojědźe
dobre,
delegatow
chcychmy
běži
bywšich
biskopstwa,
biblioteka
bemüht
aktiwitow
Wuslědki
Wulkim
Worten
Wilhelm
Tisch
Prawdźepodobnje
Praskim
Politik
O.
Němskich
Nowotny
Nadźijamy
Kukowskim
Kubaš
Krieg
Kraj
Korjeńk
Ke
Jězusowym
Geschäftsstelle
Gerata
Freundinnen
Florian
Dźěl
Dobra
Dla
Bush
Bratrowstwo
Afriki
AG
2018
1945.
1908
(1
##će,
##achu
žónskich
župow
žony,
šěrokim
ćeže,
zwjazkej
znamjenju
znaješe
zeznać
zajimuje
wučerku
wučerjemi
wuwić
wutrobny
wuj
wozjewił
wotnožki
wotchadźe
wobhladuja
wichtiger
wersija
waži
twari
tom
talent
synody
swjećimy
swjedźenskich
swjatnicy
spěwneho
spěwje
spěwaja
sowjetske
skale
ródneho
rjadow
přisłušnosć
přida
předań
prašenje:
poslednjemu
porjada
pomoc,
pjatym
pisać,
pisanja
paćer
obwohl
objekt
nawuknył
nawróći
nawodow
napjatosć
najwjetšej
najmłódši
mašiny
lochko,
literarneje
lisćinje
kružk
komory
kanclera
jědźeše
jogo
idejow
hólca
hinašim
fördern
folklornym
financielne
etaće
dźěłarnje
dóstanjeće
dypku
dujerjo
domizny,
docpěje
dnja,
dekan
chwalbu
buštej
begann
awdiency
absolutnje
a.
Zestawa
Zbožopřeća
Werke
Serbam,
Rudolfa
Rawp
Přinošk
Někak
Nowakowa
Myslu,
Mudra
Lukaš
Licht
Kopf
Kindertagesstätte
Kajka
Jungen
Insgesamt
Hamburgu
Frankfurt
Einrichtung
Domowinskeho
Diana
Deutsch
Cyža,
Bulank,
Arbeiten
Anwesenden
30tych
13.30
1,5
##ša
##oj,
##nen
##ma
##lich
##eše
čehoždla
zhoni,
zbytk
zasłuži
zaběry
wšitkich,
wětřik
wěnowane
wótcow
wuměłska
wuměnjenjow
wujasnić,
wuchodnych
wozjewja
wotměwaše
wopačne
wonkownym
wobzamknjenja
wobsaha
wobchada
wissenschaftliche
waš
warnowaše
wabješe
togo
swójbni
susodstwje
stejnišćo
stajny
skutkownje
ruskej
rukach
referat
přistajeny
přiražki
připóznaty
pólsku
profil
posrědkowanje
pospyty
poschodźe
polěpšenje
pacientow
noze
njewotwisnje
njeměła
njedźiwajo
njebju
načolnik
napis
nalada
nadrobnišo
měnja,
modernej
moderneho
milionaj
maćiznu
manchmal
lube
křižow
koparskich
katalog
instrumenty
instrument
inscenacija
hält
gmejnach
führen
financy
fest
fantaziju
fanow
entstand
entscheidet
ekumeniske
edicije
dźěłał
dóstał,
durjemi
druhich,
dopominaja
dokładne
direkt
běchmoj
bratrom
božu
boža
bjerje
awtorow,
Zdruha
Wotrowskej
Worte
Weitere
Waršawa
Umgang
Tehdom
Suchy
Stand
Sonnabend
SPORT
Rjany
Ralbičanski
Připódla
Přinoški
Papst
Němcow,
Marcel
Lutz
Lipsčanskej
Lernen
Kukowje
Kamjencu,
Jězba
Jezusa
Jenički
Hitler
Heinz
Gedanken
Friedemann
Bayern
Amt
Alexander
1907
125
(...)
##ći
##e"
štwórtym
łódź
Łužicu,
čiła
čehož
časowy
zwjazuje
zjewi
zeznał
załožene
zawčerawšim
zastupowaše
zasadźe
zajimowachu
wědomostnu
wólbam
wustajeńcy,
wurde,
wunošk
wuměłcami
wulkemu
wuknje
wujednanje
wuběrne
wobstejace
wjesoły,
wjedźechu
wjednistwom
weiteres
warum
umfasst
třicetych
twory
tworjacy
tworjace
technisce
team
tajnje
słyšachmy
synom
synej
swěčku
studentam
stejnišća
stawiznar
statnu
spěwarka
sorbisches
směm
serbske,
sebjewědomje
sady
rozsudnje
regionalna
ratarstwje
radźićelow
přinošować
přewodźachu
přeprosychu
předsydku
pěstowarnjow
prócowarjow
prócowanjach
problemy,
problem,
prašeše
prašenjom
połčasa
potrjechi
poradźeny
policisća
pokiw
pokala
planowany
někajkeho
nošerjow
njehodźeše
nastajnosći
narodnostneje
nadrobnosće
městnom
myslenja
muzeja,
maćizny
lóšo
lód
lubowarjow
křižer
könnten
krutym
krajnoradneho
kontrolu
koncila
koncepta
komunalnych
kofeju
koalicije
knjejstwo
kluč
kemšerjo
kamjenjow
kajkiž
jury
jubilejnym
jednaćelka
hłosami
gekommen
etniskich
einzige
dźiwadłowych
ducy
dompuću
doda
chlěba
basnje,
Zimmer
Zhorjelskim
Zastupjerjo
Wotrowska
Wopytowarjo
Wićaza
Weiter
Vorbereitung
Umwelt
Seiten
S
Rjenč
Rjenje
Radibor
Prěnjej
Preis
Poslednja
Person
Pavel
Njeswačidła
Ničo
Měrćinej
Mitte
Malešecy
Lipsčanskeje
Kralowa
Kindergärten
Jězu
Junge
Hanku
Generalny
Gegend
Februar
Dźakujemy
Cyła
Bus
Bräuche
Bohl
Berlinskeje
Autor
Anders
Alles
Afghanistanje
Adam
54
51
02
,,Serbska
(wobaj
(tel.
(farar
##p
##ować
##b
##ach,
Štwórtk
Łužiskim
činił,
zwólniwi
zwoprawdźić
zapiski
zamóžnosće
zakonske
zajimcami
zadźěwać
wšěch,
wše
wěry,
wučerjej
wuwićom
wuwiwa
wustajerjow
wuslědkow
wuměnu
wuměnkar
wuměna
wulkosć
wuknu
wubudźi
wsach,
wotewrjenja
wobswěta
wobornikow
wobchowa
wječornej
wjeselom
wjackróć
třinaće
twara
trajne
tobu
tekstom
tekstami
tajkemu
słónčnym
sydlišćo
swójbu,
substancy
strukturje
storči
stawizniskeho
stawiznach,
statoka
starowni
spěwna
spowědźi
spomina
spad
s
rozum
rostliny
rjemjesło
rany
radźićelka
přihotować
přichodna
přeću
předstajenjach
předskok
pólšćiny
pytnyć,
potrjeba
posrědkować
pochadźaca
planach
perspektiwu
organizuje
někotrežkuli
nämlich
nowotwar
njeličomne
niwowje
negatiwnje
naslědnika
nalěćo
naležnje
mjeńšinoweje
maćerje,
linije
lajskeho
křesćanstwo
křesćanstwa
kónčnym
krótku
kritizuje
krej
kolegojo
knježa
kleines
jendźelskej
inwesticije
iniciatiwa
hodam
ha
gesamten
genug
financow
fest,
faluje
dźěłowej
dźěćacu
dźěry
duchowna
domjacu
dobytk
dawka
das,
darum,
dalšeje
daloko,
cuzym
bewusst
angažementom
anders
adwenta
Zeichen
Wuraznje
Wotrowski
Wosada
Wjela
Union
Tracht
Staatsministerium
Srjedu,
Sport
Regionalverband
Rakečanskeje
Přičiny
Prahi,
Piniekowa
Němscy
Noack
NATO
Mitgliedern
Länder
Künstler
Italskej
Iraku
Hamburg
Fakt
Erich
Durchführung
Derzeit
DGB
Bětnar
Budarja
Brüsselu
Ach,
03
##ze
##ry
##osći
##ija
##f
šło
štwórte
čěsce
ćělnje
ćěkancow
ćerpjenje
zählen
zwonow
zjawnostne
zhonimy
załoženjom
zarjadniske
zapřijeća
zajimowani
zahoriće
zadnjej
wšelacy
wěži
wótcom
wójnje,
wučerjam
wuswobodźenju
wuprajić
wuknyć
wotrosće
wostali
wosobinskim
wodźer
wobohaćenje
wjesnjanostu
wirst
wirkt
wina,
weder
trjebachu
sćelaku
sylniše
swět,
struktura
stan
slědowacych
sagt
rěce
rozprawja,
přihotowaše
přebytk
publikacijow
próstwje
projektach
procesiona
proc.
prezidij
połnu
pozitiwny
potrjechenym
postajeny
poměrje
pomhał
polu,
nych
njenadźicy
njejsu,
narody
naprašowanju
najwyše
młodźiny,
měsacu
mócny
miliona
mandźelsku
ludu,
liebe
kěrchow
króć,
krónu
kotrejuž
kmany
jutram
interview
hrónčka
hrono
groß
faza
fachowym
fachowej
erfolgreich
endlich
dźěsću
dźěle,
dźakowny
dožiwjenjow
dołho,
docent
dawkow
cyłki
bywšeje
busa
brać
blišemu
biskopskeho
Wěm
Wulkich
Wojerecach,
Vielfalt
Umgebung
USA,
Swobodneho
Stiftungsrates
Stefana
Stare
Spiel
Přizjewjenja
Probleme
Praski
Posedźenje
Maćijowa
Malešecach
Lebens
Lage
Křiž
Karel
Israela
Gleichzeitig
Geschäftsführer
Frencla
Erzieher
Edmund
Dyrbju
Domowinskim
Braniborski
Baćonju
Basis
Antje
9.00
62
450
0,35
(srjedźa)
##00
##!”
##!''
##rjow
##ina
##e''
##che
##a-
„A
šula,
łódźe
ćichim
zwěrjatow
znateje
zawodow
zaměrow
zahajenje
zahaja
wěža
wěrne
wučomnicy
wučbnicy
wuzběhnyć
wuslědkach
wuměłcam
wulke,
wuhotowany
wuhla
wudźěli
wopisanje
wollten
wobstejnosćemi
wobstejnosćach
wobchadna
wječorny
wjeskow
widom
wendischen
voller
tuchwilnym
talenty
swjatočnym
studijnych
stanje,
spytać
sposrědkowa
slědźenju
skóržbu
skrućenju
skićeja
schreibt:
scena
sagen,
ruka
rozšěrić
respekt
relatiwnje
regionach
ratarstwa
přičinu,
přisłowa
přijeću
přełožowar
přećelej
předpołoži
pruwowanja
priwatnym
powědać
postarachu
postajić
postajichu
poměrami
pomnikow
polow
pohon
partiji
oficialne
nochcychu
njesteji
njesmědźeše
njecha
nazajtra
narodninach
napominaše
namóc
möglich,
mjenowachu
mjazy
melodiju
lěwym
lěpšemu
lubuje
kotrych
knjejstwa
kapały
jemand
jednaćela
institucijach
hodźeše
hodownu
helfen
fundament
folgenden
dowěry
chóroweho
chcetaj
bulom
beste
auch,
ansamblu
Zeitschrift
Wotpowědnje
Wosrjedź
Wjacori
Wićazec
Wałdźic
Vorstand
Tutej
Tadej
Swobodny
Statne
Spěwarskich
Spěchowanskeho
SSW
Rudnych
Regia
Poněčim
Nähe
Nowak-Njechorński
Najwjetše
MĚRCA
Michałom
Material
Lieder
Kindes
Jón
Jednotliwe
Hände
Hornju
Hodźij
Friedemanna
Dyrbi
Druhdźe
Dotalny
Dešnje
Cyłe
Chróšćanska
Choćebuskeje
Bukecy
Blumen
Ausland
78
58
1914
##é
##rja
##neje
##mann
##ce,
##c,
žónski
žurnalistow
Žitawa
Šołtu
česćownosću
ćělesa
zuerst
znamjo,
změnow
zhłójčkowa
zažneho
zasadźenjom
zamołwitym
zahori
wěru,
wěriwych,
wědźeše,
wědomju
wědome
wóz
wyšich
wuwědomić,
wuwiwać
wusměrjene
wukrajne
woła
wozjewjenych
wozjewjeny
wotpohladom
wostanje,
wobłukach
wobrubjenje
wjetšeho
ukrainskeje
täglich
trajacym
słuža
swjedźenjow
studijow
stawizniskich
spisowaćelow,
sicher
seitens
rjadownjow
režiji
přińć
při-
přewzachu
překwapi
přehladki
přednoškom
prózdninske
poskićeja
policiji
pokazuja,
pisał,
ooo
nětčišej
nutř
niedersorbischen
nich,
manuskript
lětanišću
lubeho
live
křesćanska
kóštow
kwality
kupu
kultusowe
krasnym
krasnej
krajej
kompozicija
kino
kapału
jeho,
jednotliwymi
japoštołow
hrajneho
holi
hola
hodź.)
halten
führte
foće
fondsa
farskeje
dźěławych
dźiwać
dźe,
dróhach
drjewjane
dopomnjenkow
delnjoserbska
debaće
danach
chórowy
chwilku
bóle,
bildet
bibliski
besonderer
armeja
akademiji
ZRN
Wažny
Verlag
Umfang
Ukrainje
Sto
Rěčneho
Rjane
Přehladka
Pozadk
Pančic
Nochcu
Njeswačanskeje
Njedźiwajo
Motto
Koch,
Kiliana
Jěwa-Marja
Juli
Inzwischen
Höhe
Hinca
Förster
Firma
Erika
Eltern,
Dźěła
Domjacy
Cyłkowny
Choćebuska
Bukečanskeje
Boskowym
Beitrag
Abteilung
9.30
88
750
1880
(dźensa
##K
##u''
##owaše
##ig
„Štóž
“Za
šěrokej
šoł
Šula
Španiskej
Łušćanski
Čěskosłowakskeje
Čech
znajer
zhromadźenstwo
zhonichu,
zhonichmy,
zestajał
zapadnym
zaměroweho
zaměr,
zajim,
zahlreiche
wěčnje
wěcownje
wustupowanje
wustojnje
wurunanje
wukonjeć
wujednanja
wuhladamy
wotrjedźe
wopismo
wjesć,
trjebaš
transport
tradicionelne
towarstwam
sydłom
swědk
srjedźowěku
spěwanja
spěwa,
spěw,
sorabistiske
rozsudźe
rjaneje
regionalnym
rańšim
ratarskeho
připosłucharjo
přiležnosć,
přijimuja
přichad
přežiwi
předwidźi
přede
ptačokwasny
prěnimi
problematika
poeziju
paru
organizaciji
opery
nětka
někomu
někajka
nós
nałožowanju
nawodźa
nawal
nastała
narodźił,
naměstnik
namakał,
nahladny
nadawka
nadal
móhłoj
mócnym
ležo
kónčina
kotru
jutrowny
jewjachu
informaciju
hódnoćenja
hrodźišćo
hrajerja
galeriji
freuen
erarbeitet
ekumeniski
einzelne
dźensniša
dowolu
dortigen
diesjährigen
dalekubłanje
cyklus
buch
bratstwa
bliskosće
bestimmte
basniske
außerdem
Wěra
Wórše
Wyše
Urban
Tysacy
Studium
Sprjewje
Smječkecach
SET
Petrik
Parteien
Młónk
Młode
Minakale
Metod
Meinung
Macht
Lehrerinnen
Landschaft
Krabatowy
Kobjele
Kilian
Kata
John
Iris
Grós
Ebenso
Dźensniši
Dosć
Domowinskej
Dietmar
Dezember
Dary
Dalšej
Dachverband
Cyžec
Budyšinom
Budyskemu
Bonnje
Bena,
Bayerskej
Baumgärtel
BSB
Ausschuss
69
66
1:1
1905
1881
"Serbski
##S
##?)
##twa
##to
##ste
##nosć
##kej
##e“
“Při
žiweje
žadanjam
Žane
škoda,
Łazowskej
Łaza
činješe
zwólniwy,
zusätzliche
zjězda
zběrkow
zastupnistwa
zastupnikow
zarjadow
zahrodu
zaběru
wědźo,
wužić
wučerstwa
wukubłanske
wuchować
wuchodnym
wobzamknychu
wobzamknjenju
wobydler
wobjimje
wobdźělenjom
wobchadne
wjes,
wissenschaftlichen
wissen
widźachmy
wažniše
wažnej
uniji
umgesetzt
twój
towarstwoweho
techniski
tamniša
tachantskeho
systemje
synow
swjedźenskeho
suchen
strowi
spěwachmy
sprjewinym
skutkować,
skedźbni,
serije
serbstwu
septembrje
scenje
ródneje
rozsudźił,
rozsudźichu
rozeznawa
rezultaty
reju
regia
referowaše
rad
přitomnymi
přitomny
přihódne
přesadźenju
přepytowanju
přeprošuja
přeja
přehladce
přednošuje
přał,
płaćiznu
pěsnje,
pólsce
ptački
prócować
projektom
procentow,
prezentaciju
prapremjera
pobrachuja
partije
nutřkownje
nowačkow
normy
no
njeskutk
njemóže,
nawuknyć
nawjedowanju
naspomnjene
naměsto
namjetow
nahle
nadawkach
nacijow
młodźinu,
młodźenc
měrnje
lětni
lochce
kurz
kupjele
krajnych
koparskeje
konju
kniharnja
kedźbliwje
katolikojo
jutrownika
jejko
jednotliwc
institucijow,
hłosa
hódnoćić
how
hin,
herbstwa
gutes
financneho
eurami
et
dźěłaćerjo
dźakownje
dobyća
demokratije
chudym
bytostnje
bliski
bliskej
beispielsweise
barbach
aby
Zielonej
Zdźěri
Zdźěla
Wurzeln
Wojerowskich
Wochenende
Wende
Studenća
Stefanie
Staršej
Staat
St.
Spisowaćel
Sakskej,
Pěskecach
Póndźelu
Prěnju
Njejsmy
Name
Männer
Ministerski
Ministerpräsident
Mariji
Man
Kurta
Kreis
Krakowje
Jakubaš,
Hwězdźe
Hrjehorja
Hilžbjeta
Hdys
Hajko
Grünen
Grollmuß
Gremien
Frida
FEBRUARA
Essen
Eberhard
Cyžom
Böhme
Budyšenjo
Budysku
Brot
Benom
Bart-Ćišinski
Angelika
Abschluss
2019
1847
,,Serbski
##á
##wej
##stwa
##he
„Michał
žiwjenskeje
Žony
štwórtej
Šunowa
Šleskeje
Łazowskeje
čěsku
čestnym
zymskim
zwěsćichu,
zarjadowarjo
zaměrne
zakitowanje
zakazu
zadźěwać,
zabawne
würden
wólbneho
wučinješe
wučinjeja
wuznamnym
wutrobow
wuměny
wudźeržuje
wočakowane
wozrodźenje
wosadnymi
wopytowaše
wopominanje
wokomiki
wobhladowaše
wobchowanje
wo-
wliwy
wirken
twarskeje
teren
temam
sylnu
swěčki
swětła
swětowu
swěrnych
swjatočnosće
swjatočne
suwerenje
stworić
studentow,
stali
spisowaćelka
soziale
skót
skim
sicherlich
samy
sam,
ryby
rumnosć
richtige
přikład:
přibližnje
přewodnik
přetwori
přeswědčenju
přesadźenje
předleža
předewzaću
předewzaća,
procenty
priwatny
praša,
pozdźišeho
powědać,
poskićenja
pokład
pokazowaše
podpěrać
podach
pobožnosć
paralelnje
njemóžach
najnowšich
mjenje,
mir,
mich,
mamy,
ludźom,
ludam
lektor
lajkow
kóždy,
kubłanišću
koncil
koncepciju
kofeja
knježny
klubowni
jubilarka
jednanjow
jandźel
institucije,
hrajerjemi
hosća
hospodźe
handelt
gremija
gmejnskej
ga
erfüllt
dźakuje
drohoćinki
dialoga
darmotnje
cuzbje
chutne
chcył,
bestimmten
basnjemi
Zhorjelske
Zašłu
Zamołwići
Zakład
Zajimawy
Wěm,
Wörter
Wódru
Wulět
Wornar,
Wody
Vereinen
Ulricha
Trebendorf
Telko
Tehodla
Słowakskeje
Stendi
Skale
Siehe,
Schwarze
Sama
Regionalverbände
Rano
Projekten
Posoła,
O
Nysu
Najwažniše
Měrka
Maće
Konjec
Inhalte
Hof
Hendricha
Hany
Gottfried
Gemeinsam
Dotalne
Dopołdnja
Domašcyneje
Dolnej
Dirk
DJK
Chrósćic,
Chor
Bundes
Bruder
Bohatej
Ausgaben
ARD
35.
220
22.30
2,5
1896
,,Na
(wosebje
##*
##tej,
##rt
##ił
##ing
„Łužica
„Tež
žortne
žiwej
Šram
čitaja
česćownosć
časowje
ćicho
znaju
změnach
ziehen
zetkanjow
zańdźenosći
začuwa
zawodnych
zasłužbu
zakładneho
wěčneho
wědome,
wzdać
wužitne
wučerske
wustawu
wuhotować
wuhladachmy
wuchodnje
wothłosowanju
wopłóčki
wojowaše
wojerskeje
wersiji
verschiedener
tydźeń,
twórbow,
turněrje
telefon
teilweise
słužbow
swójbam
studentskeho
studentka
stolicu
starši,
starymi
stajić,
srjedźne
spózna
spominachu
sozialen
smědźach
slědowacym
slawistow
rěku
ródny
rozwiće
rozmach
regionalneje
reforma
přećelow,
přećelom
přewodźa
prěni,
proze
prawiznik
potomnicy
podawka
podadźa
padow
někotružkuli
nałožkach
nawjazać
natwara
nastroje
nastał
namakach
najwuznamnišich
nahmen
nadawki,
nadawkam
mužom
muskeho
modlimy
mejski
lyrika
ličić,
lieben
lajske
kěrlušom
kwěćel
kwasne
kubiknych
krizu
konkrete
koncepće
koncepcije
kniha,
k.
jednota
institucija
hornjoserbsce
hohen
historisce
gesamte
fotografije
euro
e.V.
dźěli
dźeržeć
dźakować
dyžli
dwěle
dopominam
distancy
dispoziciji,
chwaleše
chceće
bydlacych
administrator
Zwjazku
Znate
Zdeněk
Wuzběhnyć
Wuježka
Wjenka
Witaj
Werk
Wendische
Volker
Sćěhowaše
Stanij
Sigmund
Serbsce
Serbami,
Sakske
SNZ
Rada
Qualität
Prozess
Pančičanskeje
Osterreiter
Němskim
Niedersorbischen
Neumann
Nazymski
Namjet
Małeho
Manuela
Maik
List
Krabatowym
Krabatoweho
Konrada
Kockert
Kašubow
Jednaćel
Idee
Hwězdy
Hornim
Horni
Gerhardt
Generationen
Fähigkeiten
F
Ehre
DDR
Chołmcu
Bělk
Anne
93
1910
1885
1854
)
##na,
##ler
##keho
##ene
##em
“Krónje”
“Jan
žurla
šće
šulstwje
šulskemu
Łužiskeho
ćišća
ćerpi
zählt
zwostanje
zrozumić,
zhotowjenje
zdźeržeć
zbytki
zažnym
zasadźowaše
zajimawostki
zaběrał
wšak,
wólbne
wuznamnje
wustajeńcach
wustaja
wukopa,
woteńdźe
wopytał
woporom
wobchadźenje
wječornych
wir,
widźach
verwies
třělwa
tradicionalnym
słyšimy
sławny
sčini
sćelaka
swjedźenjej
stets
stata,
staršeho
sportoweje
spjelnić
solisća
serbskich,
schön
schwer
samostatna
sakska
rozsud,
reakcije
radosće
přispomnjenja
přirunanje
přinoškom
přidatny
přeswědčić,
přemyslowanja
póstny
pódla,
prědowanjom
prózdniny
protest
prosył,
powěsć,
powójnskim
poražce
pojědźe
podobje
nětkle
někajkej
nächste
njeznatych
njeznaje
nimo,
nationaler
nastanu
napisał,
namša
namakali
nalětnje
nadeńdźeš
mysli,
ministerskim
lětam
lěpšiny
literarnu
kónčinu
kriza
kritiki
kompletnje
jednoće
internationalen
hängt
hrajne
hornim
horliwy
hladaše
gmejnskich
gleichen
forumje
folgende
etniskeje
dźěłam
dźělenje
domoj,
derby
da,
cyłych
cyłkow
bura
awtorej
ausreichend
akademija
Zeiten
Zapósłanc
Wšitcy,
Wěmy
Wótčenaš
Wojerec,
Wind
Wienje
Wendish
Waša
Vergangenheit
Tschechien
Słowo
Spěchowanski
Spominamy
Serbinje
Płomjenja
Praji
Powšitkownje
Pomnik
Pazlic
Oder
Němcam
Njebjelčan
Niedersorbisch
Narodne
Nagelowa
München
Monat
Metoda,
Małej
Lětopis
Lorenc,
Křesćenjo
Kóždu
Kritisce
Kmjeć
Karin
Joseph
Jochen
Hodźijskej
Gestern
Fenster
Erst
Diskusija
Damals
Buka
Biskopicy
Behörden
Awstriskej
71
35)
20tych
2010,
16.30
,,Serbske
(nic
##wje
##tz
##jće
##iski
##ge
##dy
##ck
„Wot
župneho
łubi
čłowjestwo
čłowjestwa
čitał
Čechach
ćišću
ćišćernja
überwiegend
zwölf
znaty,
zestawje
zbožowne
zašłeje
zańdźenosće
začućow
zarjadowanje,
zahorjeny
wěriwy
wěnować
wučbnicow
wučbne
wutora,
wurězk
wuprajam
wujasnić
wudawkow
wočakowaše
wotměnjejo
wotdźěl
wopytowar
wonkownej
wobšěrna
wobydlerjow,
wobhladować
wisa
wersiju
van
twoja
tudy
the
tamnymi
słónca
słabosće
sylnosć
sudnistwje
ständig
stwu
studować
strašnje
stajichu
spytali
spočatki
spowědź
spjelnjenje
sowjetskeje
sollt
sobudźěłaćerjemi
skutkował
schreiben
sagen
róžowc
róčnica
rozmyslowanju
připad,
přidatnych
přełoži
přezjedni,
přepytuje
předstajeć
pućow
publicist
prócowachu
prjedawšich
počesći
počesćenje
pozdatnje
powójnske
potrjebje
pospyta
pomjenowa
pohnu
planowanja
planow
pjenježnu
partija
padłych
něčim
nym
nuza
načolnika
napisom
młodosće
měłoj
modernych
minjeneho
kěrluše,
kružka
kruhach
kopicu
komitej
knihowni
kermušu
katedrale
kajka
jěć,
južo
jutrowničku
jubilejny
jednorych
interpretaciju
internetnej
informaciski
hören
hódne,
hätte
hudźba,
hnadowne
historiskeje
gleichzeitig
generalnej
frakcijow
folklory
folkloru
folklorna
fakulće
europski
erfahren
eksemplar
dźiwadłowej
dźensnišu
dźaka
dóstali,
dwurěčnje
dujerjow
druhe,
drasty,
docpěł
dnjowym
dienen
danke
daloki
cituje
chórowym
chórej
chcyć
běłym
bohateho
bliskich
blidu
bjezmała
beneficny
bekannte
bedeutet
Zwjazkowym
Zweiten
Zjednoćenych
Zejlerja,
Zawod
Wučer
Wutoru,
Wosobinsce
Wortschatz
Wjeselimy
Wašeho
Słowa
Stärkung
Stein
Stara
Staatsregierung
Spree
Sobu
Seminar
Schulze
Putin
Platzeck
Philipp
Pferd
Petera
Nadźijomnje
Mje
Mehr
Malinkec
Madźarskej
Lubosć
Leistungen
Krause
IBA
Hudźba
Hodźijski
Hačkuli
Hanski
Fr.
Formen
Europe
Erhaltung
Daten
Cyrkwinski
Bohu,
Bjedrich
Benno
Awtorojo
Andreasa
Abstimmung
APRYLA
68
240
1917
1904
1895
1884
##Y
##.de
##ungen
##ter
##re
##osć,
##or
##ki,
##keit
##ju,
##iši
##iše
##ia
##gen
„Mamy
„Jan
župan
žiweho
šěsnatce
šulow,
Šěn
Łužiscy
čorne
čerstwy
časnik
čara
ćehnje
zwuraznił,
zwoła
zličichu
zjawnu
zjawneje
zhromadneje
zeńdźechu
zetkawaja
zeleny
zdadźa
załožił
załožbu
zawrjenju
zawrjenje
zasłuža
zarjadowanjom
zajimawje
wěste,
wěcow
wólbnej
wójnskim
wušli
wuhlowych
wuchadźeše
wotewru
wosobinu
wobłukow
wobsahowje
wobjim
wobjednawa
wobdźěli,
wobchadnych
wnučki
wita
wendische
unterschiedliche
tajcy
słyšachu
synodźe
swědomje
swobodźe
stwórbu
studował
studijny
studijne
statom
statistiski
srjedźny
sprěnja
soboty,
sobota
slawische
skutkow
skawća
sewjernych
schadźowanki
ruskeje
ruce,
rozšěrjenja
rozsudźili,
romanje
rjemjesła
rjemjeslniske
ratarjow
připosłucharjam
připad
pře-
pěstuje
pruwować,
prezentowaše
praksa
pozadk
powoła
powodźenja
potencial
potajkim,
poskitkami
portret
pokročuje
pokročowaše
pastyr
partnerojo
padnjenych
nutřka
notwendig
njeskutka
nazhonjenjemi
nawuknyć,
natwarjena
namołwa
nakładźe
nadźije,
nadpadźe
nadeńdźemy
nadeńdźe
nadběh
nabožinje
měnju,
mjeńšinam
mjezwoča
minjenym
milinarnje
lětuša
lětnich
kruteho
kołow
konkretnych
knježerstwowy
klětušeho
katolskimi
kandidata
kamen
kajkej
jónkrótne
jutrowna
jow
identita
idejemi
hórce
hraće
hrajnej
hornjoserbskeho
horach
herzlich
grat
gebe
firmje
finanzielle
figura
fachoweho
ermöglicht
dźěłami
dźěłachu
dźiwadźelnikow
dyrbjał,
dwěla
dwurěčny
družki
dojědźechmy
dojednanja
do-
dny,
delegacije
bywšim
bydlachu
bolostne
bokomaj
bok
bohata
blišej
biskopskim
bajku
artikla
argumenty
Zwjeselace
Wuměnjenje
Wrota
Wotrow
Wert
W:
Städte
Spěšnje
Spěchowanske
Sprjewja-Nysa
Seid
Sabina
Rozprawa
Rozmołwa
Předewzaće
Orchester
Mnohim
Minjeny
Messer
Maje
Kulowske
Kulowska
Kole
Knježe,
Kirchen
Kamjenicy
JANUARA
Internat
Hudźbny
Horsta
Hodźija
Hauses
Haslowje
Europje,
Erfurće
Domowinski
Częstochowy
Choćebuza,
Budar,
Brankačk,
Berliner
Bauern
1860
##'')
##no
##kich
##imi
##i-
##enja
##ceho
„Tu
“Sym
Žitnych
Šleskej
Čórlich
ČMS
ćišćernju
ćehnjechu
zwjazani
zhonich,
zežiwjenje
zdźerženju
załoženy
zawěsćić
zasłužbny
zajeća
zabawa
wzajomne
wuwjedźenjach
wuměnje
wrotam
wotkryće
wostać,
wopraša,
wopokazachu
wokomika
wojerske
wobsadźenej
wobhlada
wobchodźe
wjeska
temach
teksty,
sćěnje
susodam
stronomaj
stajnym
srjedźneho
sprawne
sorabistika
snadne
smědźachmy
skupinka
skupinami
skupinam
rěčow,
rjenje,
reagowaše
radosć,
r
přiměrjene
přijimuje
přewjesć,
předwječoru
płoniny
powědančkow
powołachu
potwjerdźi
posudk
postrowy
pojednanja
pjenjeza
pisanych
partiju
někajkeje
nowi
njeznaty
njedostatk
nastali
narodźeny
narodej
naprawami
namjet,
nakładnistwom
najstarša
młodźinsku
mysl,
muzej,
modlachu
mjaso
meines
medalju
lěća
lyriku
ludźimi,
lońšej
literaturje,
künftig
kupnicy
kupjel
krasnu
krajnoradnym
kopar
komisiju
kolegami
koalicija
japoštoł
jamje
intendanta
hódnje
hotel
hospodarska
historisku
historischen
heutige
finanziellen
faktor
fachowc
erläuterte
dźěłał,
dźiwadłowu
durchgeführt
dosaha
dopominaše
domjacnosći
dnju,
dirigatom
dient
debata
dawnych
cyrkwičce
chwalobnje
chowancow
běłej
burskich
braniborskeho
bisschen
bereitet
banka
Zuwendungen
Znaju
Zjednoćenstwo
Załožbje
Wutoru
Wosadnika
Wojerowska
Wobdźělenje
Wjac
Winar
Wilhelma
Wetter
Verwendung
V
Untersuchung
Ukrainy
UNESCO
Tiere
Technik
Tante
Swět
Swjata
Spreewald
Simona
Serbšćina
Sachen
Rolf
Přizamknje
Prašenje
Prag
Pija
Němcach
Njebjelčanska
Nawkec
Móžeš
Moskwy
Miny
Mało
Mahling
Lěwicy
Liste
Kubłanske
Kuba
Krabata
Kooperation
Konjecach
Kaulfürst
Jězusu
Jury
Italskeje
Hejduška
Filip
FAG
Entwurf
Dokument
Chróšćanskeho
By-li
Brigita
Braunkohle
Beruf
Bereiche
83
550
15.30
03591/63
(wotprawa)
(to
(n)
(Mt
"Serbske
##...''
##sten
##owachu
##nski
##icy
##dźe
##ak
„w
“Michał
žiwnosć
židowskim
šulerka
štyrnaće
škitom
čłonow,
čuja
Ćežko
ältesten
zwěsćenje
zwěsća,
zwjazkowemu
zhromadźiznach
zhonichmy
zańdźeneho
załoženeho
začuće,
započatka
zapadnje
zamołwiteho
zakoń,
zakitowar
zajimawym
wěrnosće
wědomi
wójnskeje
wužada
wuwzaćom
wusyłaše
wuprajił,
wuměłstwowe
wuměłstwom
wuhotowanja
wudaćom
wudawa
wrotach
wrota,
wožiwić
wotpowědowaše
woprawjenje
wollen,
wokrjesnych
wohnen
wobstaću
wobsadźichu
widźi,
werdet
uniwersity,
tajnych
swójbnu
swójbnej
swójbna
susoda
sudniske
stykow
strony,
stronje,
stawa,
stara,
spěwać,
spěwali
sowjetskim
sowjetskeho
slěduje
slawistiku
sejmik
schreibt
rjap
rjaduje
rjadniske
reicht
přiwisnicy
přihotowanje
přełožił
płaćić,
pódu
programow
prawidłowne
praja,
počesćichu
pozdźiše
powjedźe
pospochi
poskitkom
porjedźe
pomhachu
pjate
partnerami
originalne
němčina
nohu
njewjesta
njewidźi
njeho,
nakup
měšniskeho
měritka
mje,
lěće,
lubi,
lisćina
křesćanam
konkretny
koncepciji
knjezow
katholische
jěchanje
jubilarej
jasnišo
informiert
hosćej
generacijow
formami
farskeho
entstanden
ekstra
eksemplarow
dźěłaćer
dźiwadłowy
dojednachu
dlěše
dirigenta
d
chóraj
brigada
bohatstwa
beschäftigt
awtorami
antologija
ansambla,
Zwonka
Wězo,
Wěmy,
Wunošk
Wudwor
Worklecach,
Wjesce
Wichtig
Vorsitzender
Via
Vertretern
Varnsdorfje
Tod
Tages
Syna
Slepjanska
Sicherheit
Schütt
Schwerpunkt
Rjana
Reise
Polizei
Polak
Pjetaš
Obwohl
Nó
Nuk,
Njeby
Netz
Nageloweje
Móžno,
Moskwa
Maćicarjo
Lětny
Lydija
Lubija
Lejnje
Jordan
Jedes
Jadwigi
Hrjehor,
Holcy
Hoffnung
Hodźijskeje
Herausforderungen
Gespräche
František
Flasche
Elke
Dźiwadle
Dwanaće
Derje,
DOM
Chrystusu
Christa
Chce
Bóle
Brankačkowa
Borkowach
Bohuwěr
Biskopja
Andreja
Achima
Abgeordneten
1990,
(čo.
(TCM)
##E
##7)
##2)
##000
##y''
##uju
##ny,
##l,
##ije
##aj,
„Wón
„Při
“Hdyž
šěrjenje
Šmit
Šatava
ławce
čestnohamtske
Časopis
ćišćane
ćerpjenja
Ćisku
öffentliche
zwuk
zwrěšći
zukünftigen
zrudoba
zmužiće
zemskeho
zdobychu
zašłosć
zaćišće
zasadach
zaruča
zaměrom,
wšitkimi
wěnowana
wěcywustojnje
wótčinca
wódneho
wzać,
wustupuje
wustupowaše
wuprajenjow
wukonom
wuklinča
wujimk
wuhotowane
wudata
wołtarnišću
wotwisuje
wotewrěchu
wokrjesa,
wobwoda
wobrazow,
wobdźěłanja
wjetšeje
widźiće
wichtigsten
warianty
wabja
völlig
třěchi
słyšał,
słowjanska
sylnych
swěrna
swěcu
swjatočnej
studentski
stajnych
spontanje
spominamy
spisownej
socializma
sehe
samostatnosć
rěkaše,
rozrisanju
rozprawjachu
rodźeneho
regionale
ratar
přičina,
přizjewić,
přistupne
přikładow
přijomnje
přihłosowanje
přihrawku
přełožka
přeprošeni,
předpolu
produkcija
pozdźe
powšitkowneho
poskitka
porjadne
pjero
pisa:
organow
nětčiše
ně,
notwendigen
njewěm,
načasnych
načasne
nazhonjenje
napjate
nalětni
najwšelakorišimi
najrjeńšim
najrjeńšich
młynje
młodźinska
městu
měr,
měnjenje,
mjeńšinoweho
meistens
lěwej
lětstotk
lětnim
lochke
listach
leider
la
kupa
kubłanišćow
krótkeho
kritiskim
krajomaj
krajiny,
koni
kolesa
kolektiw
ko
knihami
kleiner
kilometry
kennt
jónkrótny
jelizo
jednora
januarje
ich,
hinašu
heißt,
gut,
grundsätzlich
funkcionarow
francoskim
francoskeho
faktisce
fachowy
fachowu
euren
dźiwadłom
dźeše
dźakujemy
dwójny
dwurěčna
drjewjany
dołh
dowoli
dopomnić
dompuć
dnjomaj
dała
dar,
chěže
chory
burski
burskeho
burja
bohatym
bjezwuwzaćnje
analyzy
alles,
aktow
aktiwni
aber,
Zhromadny
Zašłe
Załožbu
XII.
Wobrazy
Wjeski
Wirtha
Washington
Voraussetzungen
To,
Timo
Sobudźěłaćerjo
Sicht
Saal
Republik
Praskeje
Osten
Nuk:
Nowinam
Muzej
Milch
Meer
Mari
Leipziger
Kuringowa
Jesu
Irenäus
Hubert
Hochozy
Hinblick
Heide
Halštrow
Habt
Generation
Gebrauch
Gabriele
Feuerwehr
Ewangelskeje
Ewa
Dołhož
Domowinsku
Cyžowa
Chinje
Chcyše
CDU,
Błótow
Bukečanskej
Brězanowa
Biosphärenreservat
Bilder
Bereichen
Barta-Ćišinskeho
Austausch
Ausgabe
Andrickim
Ach
1850
1000
(Hlej
(CSU)
'',
##?“,
##3)
##čenjo
##sen
##ner
##ne,
##iske
„z
„na
„Bóh
žurnalist
Ženje
škleńcu
łuki
Łužica,
časowe
ćišćerni
ćahi
ćaha
złote
zymy
zwuki
zrudobje
zrozumić
změnić,
zhubichu
zeznajomi
zestajenje
zelenym
zawostajenstwa
zawjedźe
zapřijećom
wěrić,
wótre
wólbny
wusyła
wuprajamy
wunoški
wukónc
wukrajni
wuhloweje
wudawanju
wozjewichu
wotrězka
wosobow,
wosebje,
woršty
woprawdźita
wonkownych
wolerjow
wodaće
wobsahom
woborow
wobdźělenju
wječornym
wjeselo,
wjercha
waren,
v
třělc
tragen
towaršnosće,
telewiziju
tehdyšeje
tamnu
słódny
swjećili
swjedźensku
stronskim
stopnjow
spožčichu
socialnej
sobota,
snadny
smy,
skónčenja
skutkowne
skutkował,
sie,
serbskorěčnych
sekciji
rozžohnowanju
rozšěri
režisera
rewolucije
reakcija
přičiny,
přinoškach
přihotowany
přichwata
přeprosył
předsydstwu
pěstowarske
pěstowarnje,
póndźela,
pó)
prózdnin
prosyć
pozdźišich
powostanki
posudźuje
posrědkuje
poselstwa
podpisa
pochada,
planowanym
patoržicu
partnerstwo
organizować
njesměli
njeměr
njejedna
nima,
neho
nałožuje
nawsy
najwyšim
nacionalsocialistow
měrja
myslić
motiwow
mosty
mnóstwa
mnje,
lětdźesatkami
ludow,
ludnosću
lubowarjo
lońše
ležownosćow
křižerske
kruhow
kruhi
kotrymi
koncepcija
kompromis
kofejowni
knježerstwom
knihu,
klina
kij
kermuša
keiner
kedźbnosće
jednomu
jamow
hwězdu
hubu
hrožeše
hotowe
hornjoserbskej
hladajcy
herbstwo
gesellschaftlichen
firmu
farska
fanden
fahre
ewangelskimi
evangelische
euch,
erscheint
erhielt
dźěćimi,
dypkom
drasće,
dožiwili,
dotalnej
domizniskim
dobrowólnych
diskutowachu
direktorom
dešća
dešć
chwali
chwalby
chori
centralny
bliska
awli
aufgrund
aktualny
aha
Zjednoćenstwa
X.
Wokrjes
Wokomiknje
Vorstellung
Volk,
Urlaub
Tamniši
Słowjenjo
Syman
Stróži
Sorabije
Sebastiana
SPL
Rychtar
Raz
Pětrowej
Póndźelu,
Pruskej
Oty
Nuka
NSDAP
Mustwo
Mjezynarodny
Mahr
Kretschmer
Koparske
Kommunikation
Klóšter
Jerzy
Jednoho
Holz
Hesło
Heiko
Halštrowa
Franza
Fluss
Erwartungen
Engel
Domowina-Verlag
Delnich
Charta
Budissu
Bisher
Bewegung
Beschluss
Benediktom
Beiträge
Aufgabe,
2,
1913
1911
1887
11.00
(Lk
##1)
##u“
##rn
##is
##ha
##a:
„Jako
žro
šěršo
čěska
čerstwe
časowym
čakachu
ćežišća
ćežach
zwisowace
zjednoćenej
zhladowanje
zestaja
zemrěty
zasłuženy
zastupnistwje
zaspěwachmy
zasej
zasadźenju
započatku
zamóhł
zamołwite
zahority
zaběra,
wšědnych
wěčnosće
wójsku
wužiwa,
wučerjo,
wuznawa
wutworjenja
wustupje
wukubłanskich
wudoby
wudaćow
wočakuje,
wosobowe
wopytuja
wobsydstwje
wobliča
wobdźělenja
wjelgin
trěbna,
tradicionelny
tematika
tehodla
sčinić
sylneho
swójbow,
swobodnych
sudnika
stał,
stawiznopis
spěchowar
spodźiwne
spisowaćel,
sotrami
sony
sollst
sofort
směš
směli
skutkowacych
skrućić
skromne
silwester
schwalichu
schwali
samozrozumliwe
samlutki
rozmyslować,
rjanosće
radźi
přišła
přizjewjenja
přizamknjenje
přiwuznych,
přitrjechi
přisłušnikow
přirodnych
přećiwnika
přezjednosći
předchadnika
płódne
pózdnim
protesty
prodrustwa
praweje
powšitkowny
powěsćerni
poradźene
poměra
policajski
pokazał
plus
pla
pjećdźesatych
nuncius
nowinskim
njewšědnym
njesu
njemějachmy
njeličomnych
nawuknył,
nawodnicu
namrěwstwo
namołwi,
nami,
najstaršich
najnowšeho
nadźiji,
nadźijeja
nabožinske
nabožinow
měsće,
měnja
möglichst
myslił,
mosće
mjena,
mitten
ministrom
maćernu
maltezow
lěsy
lěkarjo
ličić
křćeńcy
kubłanje,
krutych
kročele
kromu
konkreten
ko-
knihownja
kamjentny
jeći
jewješe
jednać
je-li
intensiwne
hört
hódnota
husle
hrał
hatte,
halu
gezielt
gesehen
funkcionarojo
formje,
filharmonije
fararja,
dźeržeše
domizniskeho
dnjemi
digitalen
dawki
centralnym
bohatych
bjezdźěłnosć
biskopski
bisherige
bilancu
begaben
basnjow,
barbne
artikl
analyzu
ameriski
Text
Teksty
Tajku
Swójbne
Stimmen
Sta
Sonne
Směmy
Sack
Rječka
Ralbic,
Prošu
Praskej
Ostern
Ohne
Měrćinowa
Mysle
Meškankowa
Mannschaft
Lubiny
Linie
Leoš
Latk
Krone
Kral,
Kocorowy
Knježe
Klassen
Kašpor
Jerusalema
Jendźelskej
Hälfte
Hoyerswerdaer
Hoffmann
Hańže
Hat
Grundlagen
Firmen
Dźěše
Drježdźanska
Crostwitzer
Cil
CSB
Bundesvorstandes
Benej
Baćonja
Anspruch
Angele
Anerkennung
Alojsu
77
4:0
2010.
2.000
1:2
19.45
1883
1862
"W
##U
##sće
##nd
##lu
##do
##ba
##anje
„Ty
“zo
žnějachu
žiwa,
žadaše,
čłowjeskeho
časy,
Čłon
Čornej
zwěsćili,
zwučene
zwjaza
znajomosćow
zmylkow
zemrěł,
zasłužbneho
zastupjene
zarjadnišćo
zapisać
zakitowaše
zahraje
wěstotne
wódny
wzda
wysokosć
wučeše
wuzwolenju
wustajene
wuskim
wuměłstwoweho
wukonjeć,
wuknyć,
wołtarja
wočemi
wozjewił,
wotpowědneho
wotnožku
wotměł
wotkazanje
wosoby,
worden
wopytuje
wono
wojowanja
wohrožene
wohnjowi
wody,
wobkruća
wnučka
wichtigste
wašu
třělenju
třeću
twórbam
tworjenjom
twjerdźi,
toś
to:
t
słyšach
sydlenskeho
stellten
stanu
spěšny
spěwarkow
społnomócnjeny
specifiske
sobudźěłaćerjam
skład
skok
saněrowanju
sadźba
rozumi
rozsudźa
rozestajenjach
rjadom
rekwiem
redaktorka
ratarskich
ranje
přikładne
přijědu
přećiwnik
předstajił
póndźele,
pućowanske
publikumom
prošachu
priwatnej
prašał,
požadane
poziciji
powědku
powědka
postupowanju
pospyt,
posmjertnym
posmjertninam
politiki,
pokradnychu
pohrjebje
per
patriarch
organizatoriske
oficialnym
nětčišich
nowšich
njejstaj
njedachu
niedersorbische
naroki
namołwił,
namjetuje
najlěpšeho
nadźiji
nadpad
městopředsydu
muži,
muzejow
mudrosć
mosta
mjeńšiny,
mjezynarodna
mjeno,
maja,
lubych
literarnje
ležachu
křesćanski
křesćanami
kultura,
kubłarjow
koncentraciskim
komu
knježnow
kejžora
kaž:
jeničkej
interpretaciji
hrónčko
hru,
hrajneje
hornjeho
gymnazija,
größten
gesprochen
früher
frei
frakcija
formach
eura
erläutert
erfolgt
entspricht
eksponaty
ekspertow
dźakuju
dwórnišća
dritten
domizniske
docpěł,
doby,
diakon
delegaciju
datum
datow
dary,
dalšimaj
cyrkwinskemu
chórami
chodźić
chlěbom
centralnej
běžeše
byłoj
burskim
boži
bolostnje
blišeje
bliskosć
bezieht
and
ameriskich
ameriskeho
adwentnu
Zwotkel
Zudem
Zimmermann
Wernera
Wendischen
Weimarskeje
WO
Václav
Verhältnis
Vater,
Teilnahme
Tadeusz
Tachantski
TCM,
Städten
Stellen
Statny
Smjerdźacej
Róbl
Rodźeny
Rakečanskej
Protyka
Poměrnje
Pančicy
Oskar
Němsko-Serbskeho
Njebjelčicach,
Nadawk
Nachbarn
Młónka
Modell
Małe
Matthiasa
Marhata
Lied
Lausitz,
Laken
Kommission
Kleidung
Karte
Kamjenske
Jutrowne
Jubilar
Hósć
Hrodźišću
Hodowny
Francoska
Forschung
Einsatz
Dźěd
Dźewjeć
Dučman
Drježdźanscy
Dopomnju
Domowinje,
Darauf
Dach
Cordula
Brunnen
Bibliothek
Beziehungen
Ausdruck
Alltag
Albrecht
99minutowska
1909
1858
,,Z
(hač
##O
##?”
##nske
##eja
##e)
„Tak
žněješe
žiwjenskej
Židźinom
Žana
šesćich
Šěnec
Šćěpana
čućiwje
čoło
činja,
česć,
Ćišinskeho,
złe
zunächst
zhotowić
zhonja
zentrale
zemi,
zdobyć
zbóžnoprajenja
zaćahny
zaso,
zasadźenja
zapadneho
zajimcow,
zaběrać,
z.B.
wěri,
wěnował
wěnc
wěm
wčerawšej
wólbna
wužiwamy
wužadanja
wuzběhnyć,
wuwiwanje
wuskutkowa
wurjadneho
wowcy
wowce
wotstronić
wostawa
wosadow,
wona,
wokoliny,
wodźacych
wanje
wami
vermittelt
tworjacym
tun,
tehorunja
sławu
sćěnu
sylzy
swětom
swědčenje
swědkojo
swójba,
swojorazne
sumy
statej
starachu
standen
spóznał,
socialistiskeho
směł
skutk,
skromny
samsna
sahaše
sada
rěčnika
ruske
rjemjeslnicy
rekord
přišło
přizjewić
přiwzaće
přistajenje
připrawu
připrawa
přinošować,
přetwar
přednoškach
předewzaćach
předchadnik
pěstuja
pódy
próstwow
projekt,
procesow
potrěbnych
potrjechene
postaja
poradźenju
podpěrje
podobnym
pochadźe
pochadźaceho
pisanju
papjeru
paletu
originalu
organizowaše
opozicije
njesebičnje
nažel
nastate
nastajenja
namjetowaše,
najwjetšeho
nadawkej
nadawkami
mšu,
młódša
měšćanostu
měšany
molerstwa
miłosć
ministrow
ministranća
metry
magacin
lětnym
lěpje,
ludźoch
ludami
liebsten
kupjeli
kupić
kubłarka
krajach,
kotreho
korčmje
kopaće
kompetency
kolebki
knježe
kajkim
internata
informacijemi
hrabja
hospodarsku
horcym
hodownej
ho
historiska
hektarach
hala
gesagt
foyeru
fenomen
fašisća
fax
faktow
eksistuja
dźědow
dźiwy
dóńć
duši
dospołne
dopołdnjo
dopomnjenku
dobyćerjow
dariło
ciwilnu
bywšej
bydlenskeho
busu
brunicoweje
brandenburgischen
biskopskej
bibliskich
basnju
ameriskim
aktiwitach
adwenće
Zwei
Zhorjelskej
Zasadnje
Wšěm
Wěsty
Wróbl
Wobsah
Wjesny
Wjelan
Weinhold
WUDAWATEJ
Volkstheater
Vertrauen
Verbesserung
Tróšku
System
Sven
Sukelnska
Stiftungsrat
Sowjetskim
Serbej
Samsne
Saksku
Ruhe
Přichodnu
Přichodnje
Pěskec
Projekts
Position
Pazlicach
Park
Ochranowske
Nutzer
Njemóžemy
Narodnym
Narodneje
Mühe
Móžeće
Monaten
Menge
Mehrsprachigkeit
Maćičneho
Materialien
Marek
Lubiju
London
Lehrbuch
Krječmar
Kocorowych
Jerusalem
Inhalt
Ines
Hórkow
Hory
Heinricha
Gib
Felicitas
Erwerb
Dźěłowa
Dnjow
Des
DON
Chance
Bu
Brusk
Bohudźak
BOSKOWY
Außer
Aleksandra
AfD
650
4,
1890
(J.
##M
##G
##?''
##8)
##čka
##č
##kom
##enjo
##ana
škitać
šesty
Łužyca
čitajo
čerwjene
ćěle
zymski
zwólniwi,
zwuraznić
znaje,
zjednoćić
zjednoća
zeznach
załožbje
zawěsćenja
zawodne
zawjesć
zawjedźenje
zapodać
zajaty
zabyć,
wědźeć
wědomostnika
wustupow
wustupach
wuslědkom
wuměłstwu
wukrajnikow
wujasni
wubrane
woznamjenješe
wozmje
wotwisne
wotprawa)
wotewrjenosć
wotewrjenej
woprawnjene
woprawjenju
woporam
wodźacy
wobšěrnišo
wobnowić
wobmjezowanje
wobmjezowane
wobdźělnik
wobchadźeć
wobalce
wječorach
wičneho
wirkte
willst
wichtiges
wichor
warnuje
warianta
w:
verwendet
tydźenjej
tworićelske
twjerdźić,
tuchwilny
trend
trajacy
tradicije,
towarstwowe
telewizijny
techniskich
taflach
symbolisce
sym,
studentske
stołpy
stary,
srj)
spěwnym
spěwnej
spěwami,
sprawny
sportowni
sportowa
sorabistiskich
somit
solo
sobuzałožer
smjertnje
situacijach
samomu
runinu
rozhlad
rostlin
rjadowanju
richtigen
režima
regiony
redaktora
rańše
připołdnja
přikładnje
přihotowanju
předsydki
předstawach
předewšem
předewzaćel
płaćenja
pódlanske
pućowanjach
putniskich
prózdne
procesy
priwatneho
prezidentka
prez
prapremjeru
poswjećenja
porik
ponowjeny
polěpšić
politiskimi
pokoja
pojednanje
planowanych
part
němskeju
nowiny,
noticki
njeběch
njebjo
njebjesach
nawodnicy
nawjazuje
nastajenju
namrěwstwa
nalětnim
nadosć
nabožneje
nabožnej
młodostni,
městnow,
mějićel
muslimow
modla
modernen
mjeńši
mjenuje,
maćerneje
lóštne
kwasy
kulturnje
kuchni
krónow
korčmy
koleso
knježim
klasy,
kehelemi
jězdźa
jednotne
jaty
inženjer
industrije
hłód
hódna
hudźbnymi
hospodarstwje
hospodarskej
hordźe
hordy
hnadu
hlej
haru
genannte
financnu
fararka
fachoweje
erreicht
dźěłarni
dźělej
dźiwje
dróhow
dožiwichmy
dowolnosće
dowjezechu
dorěčenju
domske
dojědźechu
decembra:
darićelam
což
circa
chórowych
byću
bychu-li
bringt
bliske
bevor
beginnt
awtoraj
awtomatisce
atmosferje
aktualnej
akterow
Złeho
Zuschauer
Zastupne
Zastup
Zakoń
Wićaz,
Wittichenau
Widźu
WM
Völkel,
Vom
Ursula
Touristen
Tamne
Swjedźenski
Start
Sorben/Wenden
Smoła
Schülerinnen
Schwester
Sammlung
SC
Ričel
Pětrom
Profesor
Praxis
Poł
Pomoc
Onkel
Niska
Nawopak
Nawki,
Nachmittag
Mět
Měrćink
Mějachu
Myta
Mittwoch
Lukas
Lubinje
Křižan
Kubicec
Konjecy
Konferenz
Konferenca
Komponist
Kocoroweho
Intendant
Hórnik“
Hanuš
Haj
Haben
Günther
Grólmusec
Grenzen
Gremium
Finanzierung
Festival
Feld
Fachowcy
Erarbeitung
Dole
Dlěje
Delegierten
Danskej
Budyšin:
Basnik
Ausbau
Aue
Arbeitsgruppe
Adolfa
85.
84
82
79
577
2005.
0:1
(štož
(4)
##ś,
##čan
##x
##va
##u"
##so
##sch
##nje,
##liche
##jo,
##era
„Kak
“Je
šěrokosć
šěroka
štoma
Šurman
łužisku
Łužiski
čěskemu
čiły
čerwjenu
čakać
Čěskosłowakskej
Čitanje
ćišćeć
zrazy
znutřka
zničenje
znajomosćemi
zestawu
zeigte
zažnych
załožer
załožena
zawodnym
zarjadniski
zapřijeć,
zabawje
wótčincow
wysokeho
wuči
wučerja,
wućek
wutrajnje
wulěty
wujasnjenje
wudowa
wotmołwić
wotlěwa)
wothladajo
wotewrjeneho
woporami
wolić
wokrjesow
wojowachu
wobroty
wobkedźbuje
wjesoła
wjesela,
wjednica
vertritt
tworow
sćěny
sćěhuja
syłu
sympoziju
susod
strowotnych
stronski
staty
staatlichen
srjedźowěka
srjeda,
spěwneje
spěwaj
sponsorow
sobustawy
směć
smjertne
składnosće
skupin,
sehen,
sage
rěkać
róžk
rozprawow
rozprawach
rowy
rejach
regionalnej
realne
rańšich
přirody,
přiražku
přirada
připowědźi,
přijeće
přichadźeja
přiběrajcy
přeswědčeny
předmjeće
před-
přechodnje
póstneho
pädagogischen
prócuje,
prócowar
prasny
požohnowanjom
počina
poćahuja
pozdźišim
powěstnik
postajene
poražka
popłatk
pomha,
pojědu
podšmórny,
podał,
podawaja
pjenježny
pflegen
orchestrom
optimizm
nutřkownej
nutrnosći
nohomaj
nawěški
narodźił
napinanja
namaka,
naležnosć,
najrjeńši
najlěpšu
měrješe
mólbow
my,
mjezynarodnu
lěsach
lóštnje
literatura,
li
lebendige
lajska
kubłanišćach
kralowna
kotra
komora
komisiji
knježerstwa,
knjezom
katastrofje
kardinalow
kapitlu
kapale
kanal
kameru
jězdźidło
jězdźidła
jednotliweho
jednotliwcy
internet
instrumentalne
hóstny
horstku
hornjoserbskich
hordosć
hodźało
h
gesagt,
funkcija
fronta
europsku
erklärt
erhält
entstehen
elektroniskich
ekumeniska
dźělom
dźělić
dźensnišemu
dźeniku
dwurěčnosće
duchownych,
druhdźe,
drastu,
dramatiske
dožiwjenje,
disertaciju
digitale
denen,
demokratiskich
chorhoju
być“,
bydlenjow
brać,
bliskeho
awtoram
awgust
archiwach
arbeitete
alleine
adwentnym
Zuwendung
Wěsće
Wučerka
Wuběrk
Wotnětka
Worklečenjo
Wincenc
Wašich
Wagner
Vorstellungen
Twórby
Trägerschaft
Sćapan,
Steffena
Status
Spěchuje
Sekcija
Schau
SG
Rupert
Rundfunk
Rozsudne
Rogowa
R
Pětrej
Produkte
Połčnicy
Poršicach
Pappai
Němc,
Naćisk
Nawce
Nas
Najwažniši
Museums
Mjezynarodneho
Mišnjanski
Ministerpräsidenten
Mata
Luby
Lipič
Krawcowa
Klóšterskeje
Klukšu
Kloster
Joachimom
Jednu
Janina
Holger
Hartmut
Hanzo
Glück
Gerechtigkeit
Gelegenheit
Fred
Fehler
Erlernen
Duchowny
Donnerstag
Dennoch
Delni
Choćebuske
Carla
Büro
Buliš
Antworten
73
230
20.00
1990.
1989,
190
1899
1882
1859
108
...,
(do
(M.
(2),
##V
##R
##92
##4)
##tym
##lo
##ischen
##hmy
##e-
##cy,
##ać
„Ze
„Serbski
“
žiwjenska
šěsnatki
šola
škodow
łukach
čita,
ćichej
überall
zwjeselace
zu,
zrozumjenja
zjawna
zestawa
zemrě,
zbudźa
zbožownje
zažne
zawěsći
zastaranja
započach
zamóženje
wšelako
wěnuja
wěcej
wuznam,
wuwiwaše
wutrobach
wumjetuje,
wulka,
wukraja,
wukonow
wubudźa
wołtarjom
wotstup
wotrjadnik
wotchada
wosobinskeho
wolija
woblubowaneho
wjace,
wirtschaftliche
widźeli
weist
wabjachu
uniwersitu
třěcha
třećeje
täglichen
typ
twarja
tachantskeje
słyši
sčasami
superintendentom
studijnym
stolica
stawiznički
starosćow
srědki,
sportnišću
smjertnych
seminara,
schönsten
saksku
ródnych
rozrosće
rozmołwješe
rozestajenjow
přiłoha
přičinami
přizna,
připóznata
přestawku
překwapjenka
płaćiwe
ptačeho
prócowarja
proša
promilow
prawniski
postajenju
posměwkom
poprawny
pomocneho
pokazowachu
pišćelow
pask
pasaže
paduši
oben
ně
nócne
nošerjo
nowonatwar
njezamóže
njewědźeše,
njenamaka
njemóžeja
njedósta
njebjesa
natwarił
nastaji
naspomni,
naročny
měšnikow,
měsacaj
měrjachu
mudry
modlić
mocach
mjezsobnym
mjenować,
mištrow
misionskim
min.,
maćerjow
mandźelstwje
lětne
ludowi
ličbami
listom
ließ
kubłać
kubłanskej
knižnej
klasiske
južneje
jewišćowy
jendźelsce
interneta
interessante
indem
hranicow
hranica
hraje,
hoch
hinak,
getan
generala
fotografa
firmowanja
filmowy
figurow
europäischer
einbezogen
eigener
dźakom
dźak,
dóstała
dóstawaja
domjaceje
domjaca
docpěli,
dobrowólne
dnjowy
diskusijow
dir,
delnim
darin
cyrkwineje
chłostanje
chóra,
chcyše,
běły
bywaja
braniborskim
boje
beträgt
begleitet
bauen
bajkow
antologiju
Zmeškal
Wuznam
Wotrowskim
Worklečanska
Woboje
Wjenkec
Winkler
Waršawskeje
Vergleich
Vattenfalla
VW
Tuto
The
Tam,
Strach
Stareje
Stani
Sprjewi
Sprachkenntnisse
Sorbe
Siatkowska
Schrödera
Schließlich
Rüdiger
Rusojo
Reinelta
Radworčenjo
Radworskich
Pólsku
Problemy
Praskich
Pohlad
Pančicach-
Oh,
Nětkole
Nuknicy
Najlěpje
Nadźija
Mětšk,
Mužojo
Montag
Ministerium
Max
Malinkom
Luther
Ludoweje
Lipsčanskich
Lipsčanskeho
Lipska,
Köln
Kunze
Kulowskim
Kowarjec
Kosten
Koschmal
Konzeption
Kokla
Kocorowe
Katolscy
Jězusoweje
Irmgard
Irena
Internetseite
Hólcy
Hochwasser
Hitlera
Heilige
Hantuš
Gemeinderat
Gelegenheit,
Gast
Dźěćiznak
Darin
Claudia
Christen
Bywši
Axel
Arlt
Andrickeho,
Abraham
855
78)
1992,
1898
1886
1871
(!)
##);
##žkuli
##ź
##šu
##taj,
##keje
##jam
##išo
##et
##ert
##ena
##der
„Wo
“K
žohnowane
Žitawy
Štyrjo
čłonstwo
čitam
öffentlich
zwotkelž
zwadźe
zugänglich
znał
zjednoćenstwow
zhonili,
zetkamy
zběrnik
zastojnikow
zaměrowy
zakonjom
zajědźe
zajimuja
zajimam
zahajene
zadnim
zaběrje
wěstymi
wěstosć
wědźał,
wyšinje
wužiwane
wuspěšna
wusahowacy
wupuć
wukraju,
wudźěłkow
wudaty
wudate
wuchowa
wuběrnej
wozjewjenym
wotstawkach
wotstawk
wotpowědnymi
wothłosowanje
wostała
wopačnym
wojerskich
wohenje
wobžaruje,
wobsahi
wobhladanju
wobdźěleja
wječorne
wječer
wjacezaměrowej
witać
winowatosć,
tydźenja,
turistiske
tudyšich
tudyšej
tróšt
trat
tradicionalneho
towarstwowym
towarstwami
tematiki
temami
telewizijneho
tajkele
słódne
słowčko
swěčkow
sucht
studijneho
studiji
strachom
stopjeń
stawizniskim
stawej
statnje
stacijach
srjedy
spěwach
slawist
skupinu,
skały
skawtow
singen
sezona
sewjer
serwis
seminarow
sedmy
samsnych
rěču,
ručež
rozsudej
rozsuda
rozpominanja
rozhłosowym
rozestajeć
rjadownju
rejwanskej
realnje
ratarski
přišła,
přiwuznymi
přinoški,
přewzać,
předstajili
pućowanski
próstwu,
prócować,
programowym
produkt
prezentowachu
prawa,
prajić:
prajili,
pr
połožichu
powětře
powěsćow
powědkow
powołanski
powołansce
potrěbnym
poskićuja
positiv
politisch
pokazali,
podleža
pobrachowaše
pobrachowacych
pjećo
pismowstwje
pisana
pisaja
organy
němskorěčne
němsko-
někotremužkuli
nošerstwa
nochcył
njesć
njeby-li
načolnych
nawodnistwa
naročne
narodnostnej
naroda,
namocu
najlěpšej
najlěpša
nahladne
nahladna
młódšej
městnach,
měnjenjom
mólbami
móhła,
modli
modernje
misionar
ministerki
milinarnjow
metody
maćerna
material,
mam,
lědy
länger
lubu
lernen,
křesćanow,
kěrluša
kóždežkuli
kónčiny,
kwětkami
kupić,
kulturje,
krasnje
krajnemu
koncerty,
kolegu
kmane
klasiskeje
katolikami
kajku
kajkaž
jězdźi
južnym
jeničkim
jednotka
intensiwnišo
informowachu
informaciskim
hudźbnika
hrali
horce
hodź
hibanja,
gramatiki
gerecht
foruma
fordern
folgte
filharmonija
etniske
erstmals
entsteht
energijowy
eksistenca
dźěćatstwo
dźiwadłoweho
dźakownosću
dyrbjeć
dych
dwurěčnu
duchownej
dowolene
dostojny
dostojne
dopokazać,
dopokaz,
dokumenta
dobyćerja
dobri
demokratiske
delnjoserbšćinje
delanskich
dekanatne
date
dalewuwiće
dalewjedźenje
cuzeho
bolosće
boka
blieb
bjeru
bestehenden
aktiwnym
akt
Zwjazkowej
Zajimawa
Wonkowny
Winarja
Weißwasser
Verständnis
Vatikanskeho
Towaršnosće
Toho
Sprjewju
Sokoljo
Skoro
SAEK
Ronald
Rogowje
Rede
Rawpa
Přizjewić
Pazlicy
Němcy,
Natürlich
Najpozdźišo
Nagel,
MENS
Lubij
Lothar
Landrat
Krystof
Katharina
Kantor
Jězusowy
Jiři
Jednohłósnje
Janskej
Hwězda
Hrabal
Halštrowje
Górje
Groschen
Grodk
Gerade
Gegenden
Felix
Euer
Drježdźany,
Dobyćer
Cornelia
Bühne
Böhmy
Burg
Brücke
Broschüre
Benjamin
Bejmak
Bayerskeje
Baum
Baršć
86
81
2011.
1840
175
1,2
1,
,,Serbja
(ze
(Lěwica)
##J
##ŕ
##čki
##uja,
##rje
##njow
##jemi
##ika
##ica
##er,
##eho,
##ec,
##by
##ał
##at
##al
„za
„Mój
žito
židowskeje
židowskeho
železny
žanežkuli
žadanjow
Žur,
Šunowskej
łožu
čłowjeskeje
čłonaj
činili,
česćowanje
česće
čerwjena
ćežkeje
zwučowanje
zwučenosće
zwoprawdźić,
zwjazkom
zwjazk,
zrudny
zranjenych
zběraja
zawjedźenju
zasobu
zarunanje
zamóchu
zamołwiće
zakonja,
wěstoty
wótrym
wuznamjenjeny
wutroby,
wuswobodźichu
wusměrjenje
wuslědku
wuradźowachu
wupřa
wuprajić,
wuměłca,
wulkotna
wuknjenje
wudyri
wudawaše
wuchowanju
wozjewjenjow
wotwonka
wotpokazuje
wotkry
wotbagrowanju
wosadnicy
wosadach,
wopřijima
wopomnišću
wojować
wobšěrnej
wobsedźerja
wobsahej
wobjedu
wobdźěleni
wobchadnym
wječorki
wjesku
wjerći
wjerch
wjedł
weiß,
wažić
wann
wachsen
volleyballowy
vatikanskeje
unterwegs
tymi,
tuchwilnych
trěbnym
trěbnej
treten
teologa
tendenca
techniskeho
swójbnymi
swojoraznosć
swobodna
studentskim
strukturne
stejace
stawizniskeje
staršiski
staršiskeho
starosćach
stach
spěchowaše
spěchowanjom
sprechen,
sorabistiskeho
sobustawojo
sobuskutkowacym
sobudźěła
smjertny
skućićelow
seriju
serbšćinu,
rěčnymi
rěkaše:
ručne
rowu
renty
přizjewja,
přiwzachu
přisłušachu
přisłowo
připowědźił,
přilubi,
přihotować,
přihotowane
přećeljo,
přewjeduja
přewinjenje
přeje,
předstejićer
póst
prózdninskim
prosyć,
prajiła,
powójnskeho
postawje
posmjertne
porjadny
poradźowar
pisanym
pisachu
personal
patrom
original
někajkich
noty
njewšědnej
njewotwisnosć
njepřińdźe
ne
nańdźeš
nawuknjenje
naprawach
namakali,
najmłódšich
nadběhi
mysla
mortweho
mjezwočo
miliardy
medijam
maćerneho
materialom
manager
maksimalnje
lěweho
legt
kłobuk
kulojte
krótka
kruteje
kopje
konkurency
konkretnym
klasu
kaznje
jubilejne
jim,
jednotkow
informaciskeho
ideale
hódnoćachu
hwězdźe
hrajnišćo
hospoza
hornjoserbske
hora
hodowneho
hladaja
hižo,
herum
her
halowy
gmejnske
gingen
generalna
früh
financowanju
filozofiju
fararju
eksperća
dźěćom,
dźěćatstwje
dźědojo
dźěch
dźiwadłowym
drobne
dringend
doł
dospołny
dorozumjenje
domicil
dnjoweho
dawaja
damy
cyklusa
centralneho
bróžnje
besuchen
bekam
argument
areal
arcybiskop,
anderes
alt
Zug
Znajemy
Zběrka
Wša
Wylema
Wuwiće
Wutrobnje
Wuchadźejo
Wubědźowanje
Wotrowscy
Wosebitosć
Workshops
Wony
Wonej
Waltera
Vortrag
Vorbereitungen
Vatikanski
Trudle
Tourismus
Słodeńk
Sudnik
Sprjewja
Sernjan
Schulverein
SRWŠ
Ručež
Ronny
Ralbicach,
Radworscy
Radworja,
Přidatnje
Přichod
Přeprošenje
Předwidźane
Pětška
Punkt
Ptači
Poskitk
Petrus
Parlament
Parczewski
Pančičanskej
Pančicach,
Obama
Njeńdźe
Njechorńskeho
Nebelschütz
Nagela,
Moniki
Mnichowa
Mitarbeiterin
Mikanowa
Meje
Markec
Malinkoweje
Malešanskeje
Lětopisu
Londonje
Lipje
Kulturny
Kreissparkasse
Knjezej
Jězusom
Hornjołužiska
Hilžbjety
Henry
Görlitzer
Grodka
G
Flöte
Ewangelski
Ericha
Erfüllung
EKD
Dubrawa
Druheho
Druck
Dresden,
Doris
Doniž
Daher
Clemensa
Christi
Chcych
Buliš)
Biskopicach
Antwort
Angst
Angeboten
Andricki,
1891
1889
1879
000.
,,Die
"Serbska
##W
##B
##ß
##zy
##tych
##njo
##iska
##iny
##a”
##ane
##am,
##acy
“Die
štučku
šli
škleńcy
šansy,
łatu
Łužica-Delnja
čłowjeku
čorny
čisłow
čerwjenej
častodosć
zwuraznja,
zwjeselace,
zweisprachig
zwanzig
zwady
zniženje
zlě
zhladujo
zhladowanja
zetkać
zeigen
zdobyć,
zawostajenstwo
započeć,
zajimc
zachodom
wěrny
wěrić
wučbnych
wuznama
wuprudźa
wołtarju
wočakowanje
wosobinsku
wopodstatni
wokolina
woknje
wohenja
wobšěrnych
wobswětoweho
wobstejacych
woboru
wobkrućichu
wobknježi
wobchoda
witanju
widźomne
waša
wariantu
wahu
wabić
verschiedensten
verloren
unterschiedlichen
trening
tradicionalnych
temu,
talentow
słónčne
słyšiš
słyšał
słužić,
słužbu,
swětne
swěrnym
swójska
swjedźenje,
stworić,
stellvertretende
statokow
spěchować,
sprawnosće
sowjetscy
sobuskutkowanje
sobudźěłaćerja
snadnym
skromnje
skoči
skedźbnić
sejma,
sedźachu
schließlich
scheint
rěčomaj
rěčnikow
rěčemi
rěčeli,
ródnu
runa
rozprawjeja
rektor
přiwzać
přiwuznym
přiwabi
přirunujo
přihotował
přihotowachu
přidawk
přiběrace
přewzał,
přewjedźenju
přesadźić
předstajeć,
přednoškami
předawaja
přebywanju
póńdu
pućik
puće,
ptačokwasneho
prěki
prócowarjo
profet
prezentaciji
prawniskich
prajił
pomocnik
pomhali
policistow
pokalu
pohrjebnišćo
podobnu
podobna
pjateho
personala
organ
někotražkuli
nyšpora
nowostku
nowember
nochcemy
njezapomnite
njeseše
njedźeli,
nazhonjenja,
nazhoni
nawuknyli
nastało
naspomnjenych
naspomnić
narowne
narodnostnych
napismo
nahladnosć
naby
młodemu
měšane
město,
městnych
měritko
muzeju,
murju
muri
modlo
moderator
mnohostronske
mjenami
mištrej
ministrej
materielneje
lěśe
lětdźesatk
ländlichen
lutowarnje
ludowemu
lokalne
liški
leicht
křćeńcu
kóždehožkuli
kónči
kwasnych
krótkimi
kołbaski
kooperaciji
komponistow,
kommt,
kilogramow
kennen
karta
kapitla
kandidaća
južnych
jutřišeho
junija:
jich,
jeweils
jednorym
januara:
internationale
identity,
hroža
hrajerjam
hohe
hodź.:
hodownymi
historische
hata
filmowcy
fary
emocionalnje
dźěłaćerja
dźěćinu
dźěćetko
dźesaty
dźakownosći
dóstać,
durjach
duch,
drustwo
drastowe
dowolić
dotalna
dopóznaćow
diecezanski
demokratiskeho
dem,
delegaća
dawać
darum
dali,
chudoby
chudobje
chu
centralneje
běła
běharjow
byrgarskeje
bydlenski
burskeje
braniborski
bjezdźěłnosće
befindet
basnik,
basnica
barbow
antologiji
angažuje
angažowany
aktualnu
Zugang
Wótca
Wunsch
Wrocławju
Wotrowskeho
Wotpowědne
Wothladajo
Wosadniku
Workshop
Wjeselo
Wawrikec
Wann
VfB
Vertrag
Twarske
Słowakska
Spuren
Sorbischunterricht
Sofija
Smój
Smolic
Seele
Schuljahr
Schriftsteller
Rumunskej
Přednošowar
Pólscy
PÓNDźELU,
Proces
Personal
Oberschulen
Nowakec
Nimamy
Neues
Nawka:
Museen
Mjezynarodneje
Mišnjanskim
Mitteln
Marx
Marie
Lessingoweho
Kultura
Kultur,
Kulowje,
Krawcej
Koćinje
Karlowej
Kann
Judith
Jasne
Janka
J
II.,
I992
Hórnik”
Hund
Hauptstadt
Grundschulen
Großvater
Grofa
Gestaltung
George
Führung
Frage,
Feliksa
Falls
Ebene
Drje
Deutsch-Sorbischen
Dekan
Danow
Dachverbandes
DSLK
Chronika
Centrum
Centralneho
Bychmy
Brězana,
Blunju
Biblija
Beteiligung
Basnje
Baberška
Awstriskeje
Aufnahme
André
Aktualny
Akademije
92
76
1902
(W
''Na
##2,
##")
##ä
##zu
##skemu
##lětny
##ische
##isce
##imy
##ger
##acija
##ace
„Cyrkej
židowske
železnica
žadanje,
šulam
štyrjom
šansow
Šwjela
Š.
łužiska
ławki
čitał,
čerpa
Čorna
ćichi
ćežkimi
Ćežke
Ćežišćo
zražce
změnam
zhonił,
zeznajomichu
zdźěłać
zańč
zawěry
zarjadowanjow,
zarjada,
zaměrom
zaměrej
zakonsce
zakonjej
zajimuje,
y
wćipni
wünschen
wójnski
wzał,
wučomnik
wutworichu
wustajeńca,
wurjadnje
wurazy
wulkotnym
wulkopósłanc
wukaz
wotmołwić,
wopomnjenske
wolij
wojaka
wohnt
wobsahowaše
wobradźi
wnučkami
wječornika
wjesołu
wjesoła,
wirtschaftlichen
tuchwilneho
trajacej
tezy
teritorij
temy,
telko,
tehdy,
techniskim
tausend
słowow,
sćenja
sy,
swjećeštaj
swjatočnosćach
su:
stawy
spěwał
spěwanskich
spisownu
spisane
soweit
slědźenjach
skutkuje,
skutkowaceho
skutkach
skedźbnić,
siehst
serbski,
seniorojo
sekretarka
samaj
rěča,
rytmus
rozswětlerstwa
rozmyslować
rostu
režim
rejam
referaće
přińdu,
přirodny
připrawow
přećiwnikow
přepytowanjow
přeměni
překupc
předstaja,
pućowanskich
putniskeje
pruwowanju
pruskeho
programach
procesionach
probowym
priwatnje
praktikum
powšitkownu
powědančku
powědachu
poskitku
polěkuje
planowanju
personalne
originalnje
opera
obersorbischen
němske,
noša
njewotpowěduje
njewobsteji
njepłaći
neun
nawodźe
nawjazujo
naprašnik
naposled
napjatosće
napadny
namakaće
najmjeńšich
nadběhu
nablaku
měrić
myslički
mustwami
mejemjetanje
masiwnje
lěsnych
lěpšinu
längst
ludowědy
litrow
kóždolětne
kónčin,
kursow
kursach
kreje
komunalne
kompleks
katedralu
jězorje
jězdźidłow
junger
jazyk
institutom
ideja,
hłubokeje
hóstnych
hródźi
hraća
hrabje
hodźi,
hodźeli
hinsichtlich
hesłow
hercy
heiligen
hasa
habe,
grundlegende
grafiku
gelten
francoski
fonds
financnych
entscheiden
eksperta
dźiwadźelnika
dušine
dušepastyrstwa
dožiwich
dowěrje
dowolowe
dotalnemu
dotalneje
domjacnosćow
dokumentuje
dobyćerjo
dobyć
dała,
dalokeho
cuza
co
chronice
charaktera
běha
božeho
biskopske
bekommt
bazu
ansamblowcy
angažowanych
analyza
ameriskeje
alarmowy
aktiwneho
aktiwna
Zbigniew
ZSW,
York
Wěteńcy
Wutrobne
Wrócławju
Wječork
Wićazowa
Twar
Turkowskej
Texasa
Tadeja
Symbol
Swjateje
Stone
Smolerja,
Smjerć
Sernjanach
Serbow''
Sehr
Sabine
SZ
SPD,
SLDź
Róžeńće,
Rund
Präsentation
Połoženje
Počasu
Pawlikec
Panschwitz-Kuckau
Nummer
Nowin,
Njeswačanskej
Njek
Niveau
Najlěpše
Městno
Měrana
MĚNJENJA
Mühlrose
Miroslav
Maćicy,
Macka
Lětdźesatki
Lusatia
Kóždemu
Krygarjec
Komorowa
Katolske
Katarina
Jozef
Imiša
Ihrem
Hórčanski
Hórce
Hornjołužiskeho
Hodźijskim
Hody
Haupt
Hanu
Gruhn
Große
Grodku
Geschichte,
Geschenk
Funktion
Frühjahr
Filomeny
Ewangelska
Erwin
Einfluss
Einer
Dźěłowe
Drježdźansko-Mišnjanskim
Drei
Dospołnje
Deutschland,
DB
Chróšćanscy
Chrósćicy,
Charakter
Centralny
CK
Braniborskeho
Brandenburgs
Bergen
Berg
Artikel
Anteil
Alberta
Adwentny
Abgeordnete
89
4:1
3:2
22.45
1897
1892
1872
1845
15.15
(tak
(s.
(SPD),
##T
##/a
##zm
##su
##schen
##sche
##h,
##enju
##ek
##cym
##cow
##chmoj
##cej
„Woł
žanrow
žadaja,
šulerjo,
šulach,
štwórtka
šoł,
łoža
čłowjekom
čuju
čujachu
črije
ćežkeho
złotu
zwěsćił,
zwiskach
zrozumliwe,
znjewužiwanje
znamješko
zmyslenje
zhromadźichu
zhonimy,
zběhny
załožerja
załožbowej
zazběhej
zawodnje
zasadźuje
zarjadom
započeli
zapalom
zakazane
zajimowany
wšelakorosć
wědomosći
wěcach
wzajomnosće
wuwučuje
wustajeńcu,
wuměłstwow
wulcy
wuja
wudało
wudaćach
wuchadźeja
wočakować,
wotstronjenju
woswjećichu
woprawdźitym
wopomnjensku
wopomnišćo
wojuje
wobroća
wobrazej
wobkedźbowanje
wobchodach
wjeseleše
wikowarjo
widmet
wašim
umfangreiche
twarska
tudyšim
towaršnostny
tole:
teoretiske
tamnišu
tamna
słóncu
słód
słowčka
suny
sudnikow
strowota
statnymi
stajneho
stadło
spušćomny
sporće
spjelni
sorabistow
sněze
slědźerskich
skutku
sewjernym
sewjerneje
serbskorěčny
serbsko-
samu
rěčał,
rěkaja
rólu,
rozšěrja
rozrisanja
rowej
rjadownja
republika
remis
radow
radostne
přiwobroći
přinjesć
přiběracu
přećelku
přewzaće
přewiny
přeswědčena,
přesadźichu
přeradźi
přemyslowanju
předsydstwa,
předstaji,
přednošowar
přebywachu
pěstowanju
projektej
prezentuja
połni
powětr
poselstwje
poprosy
pomocnikami
pokazachu,
podźěla
podawki,
pobył
pismowstwa,
pisacych
pilne
pianistka
pedagogiskeho
organizowanje
ordentlich
operu
online
offenen
offen
nutřkownu
nowostka
notwendig,
njewočakowano
njesłuša
njeskutki
njeporadźi,
njej,
nałožować
nałožki,
nastawaja
naspomnjeny
namakała
najwyšeho
najstarše
najspěšnišo
nahladow
nadźijam
nadeńć
nabožnosć
młynk
młodostneho
měšniskim
měšnikom
měšeńca
městnu
módre
myslička
myslenju
muzeje
musical
molerstwo
mjenowani
mjelčo
miłosće
misionske
milinu
małemu
manuskripta
machen,
lädt
lubej
lochki
liniji
leitet
legte
křižerski
kóń
kónčne
kulisu
krajnoradny
konwenta
konfesijow
komunikacije
kompetencu
jěć
jězbach
jewišću,
jendźelšćiny
jednore,
j
instituciju
hódnych
hromadźe,
hrodźišća
hosćićela
hodowna
hajić
hajenju
gremijach
gefällt
garantije
financnym
filmowych
feiern
fachowa
erta
erkennen
dyrbještaj
drje,
dołholětne
domčk
dokumentaciju
dnjow,
dlěšu
direktorka
direkcije
deines
daran,
cyrkwjow,
chodźił
běchu,
budźeš
bohatu
bjezdźěłnostneho
bjesady
biblioteku
basnistwa
band
bajka
atd.,
artiklu
alle,
[...]
Zwjazkom
Zittau
Zhorjelcu,
Zašły
ZAPÓSŁANE
Wětošowje
Wuhladko
Wotrowčenjo
Wojerowske
Verhandlungen
Verfassung
Umsiedlung
Ulrike
Třeće
Trjebinje
Tomašom
Tilicha
Tier
Sätze
Swjedźenske
Straßen
Stej
Standort
Spěw
Smochčanskeho
Siedlungsgebietes
Seenland
Schumann
Samostejacy
SWĚT
SFS
Rogow
Ralbitz
Přiwuzni
PŘEDźENAK
Pěčka
Prěnjeje
Podźěl
Pläne
Nysa
Nowina
Norden
Nochten
Njebjelčanskeho
Nedo,
Móžno
Muku
Muka,
Mitgliedsvereine
Minjene
Minderheitensprachen
Mejski
Marciniak
Manchmal
Lud
Lubjenski
Lorenca,
Königswarthaer
Klausa
Kamjenca,
Jünger
Jo
Jede
Jakubom
Isa
Händen
Hornjeho
Horn
Hinweise
Hillmann
Heritage
Hartung
Grenze
Geburtstag
Freiheit
Freda
Forum
Erweiterung
Dźensniše
Dyrbiš
Diesen
Chrósčanski
Christopha
Bórkowach
Brüderle
Bliskim
Bildungseinrichtungen
Beschäftigung
Belebung
Bauer
Bamžowskeje
Auswirkungen
Akteure
850
1915
1906
156
105
(5)
''Serbska
##P
##L
##D
##6)
##ću
##ý
##u)
##tow
##sk
##now
##mje
##lt
##ego
##cija
##bu
„My
„Der
žaneho
Židam
šěrši
šćežku
šćežka
šwarny
špatnje
łaćonske
čłowjekam
čornym
čorneho
čestnohamtskich
Čornakec,
ćěleso
ćopłotu
Ći,
zwóńk
zrowastanjenja
znamjenjom
změnami
zhromadźenych
zešiwka
zběranje
zbudźichu
zašłej
zašo
załožerjow
załožby,
zastupjeni
zasakle
zarys
zarjadnišćach
zapisany
zakładnym
zajutřišim,
zajeću
wědźachu
wědomostnica
wědomje,
wuzwolenje
wuwzaće
wutrajnosć
wutory
wuspěšnu
wusměrjeny
wusahowace
wumjetowanja
wulkomyslnje
wuhladach
wudała
wudawać
wucho
wubranych
wołachu
wočakowachu
wozjewješe
wozjewić,
wotrězkach
wotpowěduja
wotmołwi,
wosadu,
wopytaja
wopačny
wonkownu
wojuja
wojowanje
wohroženje
wobrazowy
wobradźa
wobkedźbowanja
wobdźěłanju
wobchować,
wjerška
widźimy,
wenden
warten
verlassen
untereinander
uniwersiće,
uniju
typiski
tschechischen
tradicijach
telewizy
technice
słónčko
słowakskich
sławnych
sćenje
syn,
swjećić,
substancu
stwórba
studenta
statnemu
statach
starski
stajił
staciju
stacijow
spěwnik
sprachlich
sprachen
sotry,
sobustawow,
skutkom
serbska,
sem,
rězbarja
rynku
rubriku
rozumom
rozmołwjeć
rozhłosowe
rozestaja
rolu
rewoluciji
rentnar
regiona,
raj
přichoda,
přepjelnjenej
předsydstwom
předstajeny
předołho
přeco,
přechodźe
pěstowarki
pólskemu
pućowaše
prócował,
programa,
produkciji
procent
principje
prawnisce
praktiskim
praju
połoženjom
pozadkom
porodźe
porodow
popłatkow
pon
pomjenowanjom
poezije,
podpěraše
pjenježnje
persönlich
patron
pasion
party
partnerske
oratorijow
něhdyšu
nyšpor,
nutřkowneje
nošerstwo
nošerja
normalny
njewšědnu
njetrjebaše
njesmědźachu
njedźeržomnje
nazhonić,
nazhonity
narod,
napřećiwne
naprašowanych
napoje
nakładnistwu
najwuznamniši
nahladnje
nacionalsocialisća
mögliche
mysleše
motiwach
molerjow
moji
modlić,
moderna
mištrom
mithilfe
ministerku
mało,
mandźelskimaj
lětstotkach
lětdźesatku
lěpšeho
ludowědu
ludowědnik
ludowědne
liga
l945
kónčinach,
kóncej
kwěćelom
kurze
kroči
kreatiwne
krajanow
koparskim
kontroli
koncilu
kompozicijow
kommunalen
knježerstwje
knižnu
klóštrej
klankodźiwadło
kermuši
kejžor
karće
julija:
jeweiligen
intensiv
integraciju
informować
ideju,
hórki
hódnoća
hornjołužiskich
horliwje
horinach
horin
holcu
hnujace
hladanišća
hinaša
hibićiwy
hauptsächlich
hatow
haja
graty
gratu
genügend
gemäß
gehen,
gegründet
fašistow
faktory
erleben
enthält
enge
eksponatow
einst
dźěsćom
dźiwadźelnica
dźiwadłu
dźakny
dwójnym
dritte
dowolene,
dopomina,
domizniski
dlěšej
demisiju
davon,
darom
cuzej
cu
charakteristiske
champions
centralnych
běłych
budget
bratrej
brachi
bilanca
bezüglich
baza
barbje
bamža,
awtonomiju
ansamblom
ansambl,
angažementa
andern
ameriske
aktive
absolwentow
Ziel,
Zelenym
Zastojnicy
Zapust
ZSSR
Wörterbuch
Wuměłske
Wulkeho
Wujězdźe
Wotmołwa
Willen
Wiesnerec
Weihnachten
Wahrheit
Vögel
Volksgruppen
Unterlagen
Třeća
Tutomu
Towarstwje
Texas
Sylny
Swójbny
Suche
Stoiber
Sorbengesetzes
Sonst
Smoler,
Serbska,
Serba,
Schulz
Samstag
SI
Rěčne
Róžeńčan
Richtung
Pólske
Pytaja
Prelat
Prašam
Pokazka
Pfarrgemeinde
Pak
Njeswačidle,
Nimam
Najstarši
Mětowa
Michałk
Mejenjo
Maćicarjow
Manja
Luthera
Lass
Landtags
Kóždy,
Kóždolětnje
Kurjat
Krawcec,
Korlu
Knižka
Karten
Karlsruhe
KNIHARNI
KNIHACH
Je-li
Japanskej
Institution
Hłownu
Hebr
Hańžu
Hannes
Handrika
Gustaw
Gregor
Google
Fuß
Frizow
Friedhof
Frencel
Folgen
Faska
Europas
Dźisławk
Dyrlichowa
Ducy
Doł
Digitalisierung
Dienstag
Denkmal
Dana
Dalšu
Compostela
Chěžka
Chětro
Christus,
Charles
Carl
Bürgern
Bryccyna
Brankačka
Božidar
Boden
Blut
Bjeńš
Bjesada
Betrieb
Besonderheiten
Bernda
Beratungen
Arnoštom
Arbeitsplätze
Anträge
98
94
33.
1989.
1916
1894
1893
1867
0:2
(dr.
(Pokročowanje
(Japsk
##5)
##ft
„Dyrbimy
žonu,
žonow,
žohnowanje,
žiwym
škitej
Šwicarskej
Šuli
łódźu
łódźi
čłonstwa
čitanjow
ćešo
złoto
zwólniwje
zugunsten
znowa,
znapřećiwi
zetkawa
zesylnić
zemske
zelenu
zdźělenju
zawěsćenju
zasłužbnych
zasłužbnje
zarjadowanjach,
zakazane,
zajimawymi
wězo,
wěnować,
wědomy,
wědomosće,
wědomosć,
wćipnosć
wyšemu
wustajenišću
wuprawu
wulěta
wukubłać
wukrajnymi
wuknješe
wujewi
wudospołnjenje
wuchodnu
wuběrna
wotmołwja
wotkrywa
wotewrjenym
wopytał,
woprawdźitu
wodu,
wobsedźerjow
wjesołej
wizije
wiki,
widźeše,
volleyballisća
verstehen
verbunden
třělichu
třećinu
twojej
twjerde
twarom
trajnje
tepjenje
temperatury
techniskej
słódnej
sławnym
sćěhować
sćahny
sympatije
sylnosće
sylniši
swačinu
susodźa
städtischen
stupa
studijo
stejišću
spěšnym
spěšnosć
spóznał
spomni
spjećowanje
sogenannte
socialistiskeje
slědźerskeho
slubi
skutkownosće
skupinje,
skej
sep
schafft
schadźowanka
rěčimy
rěčach,
runiny
rozsudnych
rozdźělnje
rozdźěla
rejwarki
rejwarjow
realitu
raja
přičinow
přizjewjenjow
přispomnjenje
přinošowaše
přinošowachu
přećelne
přezjednosć
přewostaja
přeswědči
přeslědźenje
přeprosyła
předłohu
předsudki
předstejer
předstajena
putniskim
publikacijach
pruwować
procesionom
proby
prjedy,
prašeli,
pozicijow
pozbudźa
powšitkownym
posudźować,
postupowanja
poskitkach
pos
podpěrać,
podlěšenje
plötzlich
planowane,
plahowanje
pismiki
persönlichen
pedagogiki
padnychu
orientaciju
organizatoram
oficěr
nuzne
nowowólby
nowembra:
normalne
njeznateho
njewědźa,
njepřestajnje
njedźel
njedawnej
njebuchu
neje
nałožkami
nawjedował
nawjedowachu
narunać
napomina
naliči
najznaćišich
najwšelakorišeho
najmjeńši
nabywa
městačko
měrc
mějo
müssen,
móžetaj
mysličku
muzejej
mustwo,
mustwa,
mjeńšinowy
miteinander
mision
ministerstwu
melodija
maturje
masowych
lětstotku,
lětneho
lóštom
lubowany
lubiło,
ličbow
kwarteta
kritiski
kotreje
koncepty
koncentraciske
kommen,
knižna
klětuši
klóštrow
klóšterskich
klinča
kenclije
jědźu
jeničkeje
jendźelske
instituciji
iniciatiwow
informieren
hólcam
hubjenje
hrjebje
hrami
hrajerki
hornjoserbšćiny
horjo
holcy,
hladanju
gesund
freut
fotach
finde
financielnu
faworit
farski
fara
f
eurem
energijoweho
dźěsćomaj
dźělenja
dźiw,
dyrbitej
dypkowych
dušepastyrske
domoródnych
domej
dobyć,
diskusijach
debatu
dauert
bratrowskeje
blišeho
bibliskim
beteiligten
beschreibt
bekannten
basniskich
banku
awgusta:
aufs
asimilacije
arealu
alternatiwa
akwarele
absolutnu
XXIII.
Wujězd
Wróćo
Wotrowje,
Wornarja
Woidke
Wjesela
Wissenschaftler
Weltkrieg
Wein
Verbreitung
Towaršnosć
Teilnehmern
Sünden
Studij
Strukturen
Staj
Stadt,
Sprjewjan
Sowjetski
Sorbengesetz
Sitzungen
Seifert
Schüler,
Schleswigsko–Holsteinskej
Schaffung
Räckelwitz
Ruskeje,
Ratzinger
Ralbičanskim
Prahu
Pius
Pawole
Paris
Pakistanje
Opolu
Nakładnistwo
Nadrobniše
Nachwuchs
Młynkowa
Młodźinske
Ministerstwo
Meyer
Manfreda
Mach
Liany
Leider
Lehrern
Landkreise
Kulturtourismus
Krawcowe
Krabaće
Kobjele,
Kasper,
KZ
Jězus,
Jěwy-Marje
Jušćenko
Jank
Huber
Hrjehorjowa
Hornčer
Herta
Hanza
Haiti
Gottes,
Gläubigen
Gebieten
Fritz
Forderungen
Forderung
Europski
Einführung
EU,
Drježdźansko-Mišnjanske
Delan,
Dawidowskeho
Chrósčenjo
Chrósčanskim
CYRKEJ
Budyšinku
Buchstaben
Bratislavje
Borbory
Bjarnatom
Bezeichnung
Betroffenen
Beauftragte
Aufbau
Anforderungen
Andrzej
Ameriki,
Aktion
99
74
1863
113
083
(Zeleni)
(1.
''W
##9)
##!“,
##ča
##v
##ješe
##ic
##ga
##eć
##eny
##emy
##ben
##and
„Meja“
“Chcemy
žonami
žiwe,
žita
žadanju
šło,
šěrić
šćežki
šćežkach
špihel
šije
łaćonskej
Łužycy
čerwjeny
čakać,
Černobylske
ćěri
ćahnu
Änderung
zukünftig
zrozumliwje
zrowastanjeneho
znajachu
zlochka
zhubili
zhonili
zeznajomić
zawjeselichu
zastupnikami
zastupjerka
zastupjerjej
zastaranju
zarjadowar
zarjadowanjemi
zapisowar
zapiskach
zapisanych
zapad
zajimowanym
zajachu
włosy
wěsći
wědźachu,
wzachu
wušła,
wućahny
wuswobodźi
wustawoweho
wuměłstwowych
wuměnjenjach
wulkosći
wukonjeja
wudźěłać
wuchodźenju
wuběrnym
wuběrkej
wubědźi
wočerstwjenje
wočakowanjemi
wozy
wozu
wozjewić
wotdźěla
wotbagrowanja
wostał,
wopušćić,
woprašanych
wonkownje
wojakow,
wobsahuja
wobmjezowanja
woblubowana
wobjedna
wobdźěleše
wobchadźenju
wliwa
wjeselu,
wjedła
wikowanje
wariantow
wahrscheinlich
vieler
tschechische
titlow
tief
test
tenor
teilte
tajne
słužownik
słabe
sćerpnje
synaj
symjo
swětowymaj
swójbach,
swobodnej
swjedźenska
swjatočnosćow
swjatk
swačina
susodami
stärken
statt
staršeju,
starken
starc
srědkow,
spóznaća
spisany
sorabistice
so:
sněhom
skutkowanja,
skupinske
skićachu
ski
ske
serbskorěčnu
sedźa
schaut
sakskemu
sadźbow
rěčki
rěčespytnik
rěčał
rězbar
rěkachu
rušćiny
rušćinu
runoprawosć
rozsudźiła,
rozsudow
rjadniskich
riziko
rief
republiku
reje,
pśez
přiznać,
přistupna
přinjesu
přijěł
přijomny
přihotowali
přečita
přewodźeć
přesydlencow
přeradźi,
přepytować
přepozdźe
přenjese
překwapjenku
předwidźany
předstajištej
pěškow
póstnych
pytał
putniskeho
putniska
prozu
probu
prawniskim
posłuži
posłužby
posudźowanje
poruči
poruča
pomocnych
pohrjeb
podawk,
poda,
pochadźachu
pobožnosće
planowanemu
plakaty
pjenježnych
pjenježnej
piše:
pisaneho
peticiju
pasmje
pas
paleta
pakćiki
padnje
originalnych
organizowanju
organizowane
organizatorow
oficialny
němskorěčnych
nutřkownych
njewěm
njeskutkow
njesechu
njemějach
načinichu
nazymskeho
nawopak,
naspomnić,
narodnymi
namołwjeni,
namjetej
nabožnje
młódšim
měznik
měrej
mócne
mysle,
moraliske
mocow,
mjeńšej
mjezsobnej
mio
minus
miliny
medijowy
meble
mašinow
lětanišća
lětadło
lubosće,
lipa
langen
lajscy
lajkojo
kürzlich
könnt
kuzło
kupcy
kritizowaše,
krasna
konjace
konfliktow
koncertaj
koaliciju
klóšterskeje
klare
kajkuž
jězorow
jězdźeše
juristiske
jimaše
jastwo
jasne:
jadro
italskeho
israelski
indirektnje
ideji
hłubokej
hódnoćić,
hrě:
hotuja
horcoće
historiskimi
helfen,
gewesen
geplanten
gehört,
gaž
fürs
funkcionar
frühen
francoskej
financowanja
fanojo
erwarten
ertnje
erfolgreiche
elanom
ekumeniskim
dźěłowu
dźěru
dóstała,
dyrbjeli,
duchownemu
družka
druzy,
drustwa
drohotny
draußen
drastoweho
dramaturg
dožiwjenja,
dospołnu
dopóznaće
dole
dokulaž
dohodownym
diakonije
detaile
demokratiju
delnjeho
debjenje
dazu,
darin,
daraus
danskeje
dalej
dale:
dadurch
cyłkownu
cyłemu
citat
chwili
chory,
chodźach
běžne
bědu
bórzomne
bydlenskich
butru
budźa
brěmjo
brunicu
brunicoweho
bitten
biskopami
bessere
besonderes
beschäftigen
berücksichtigt
bal
b
awtora,
ausschließlich
architekt
akterojo
aktach
akcent
Zwischen
Zrěčenje
Změna
Zeitraum
Während
Wysokeje
Wulce
Wrócławja
Wothłós
Wohl
Weiteren
WIDŹAŁ,
Völkela
Varnsdorfa
Twój
Tehdyši
Słowjanski
SŁYŠAŁ
Symana
Susanne
Stadtrat
Später
Smjerdźaceje
Sigrid
Sieghard
Sei
Schiemann
Rejza
Reiner
Redaktion
Recht,
Rand
Radworske
Přihoty
Přihladowarjo
Płomjo
Predigt
Praske
Politiker
Polakami
PB
Organizatorojo
Norbergowa
Njesměmy
Njebjelčanskim
Naju
NSLDź,
NAPISAŁ
Měšnik
Mětška,
Měsac
Mühle
Mucha
Monate
Mjezynarodna
Mič
Mitarbeit
Matka
Maticy
Lipsčanskim
Latka
Kultus
Kukowa
Krawčikec
Krajna
Końcak
Konzert
Kindertageseinrichtungen
Keller
Kamjenskich
Kaffee
Jenča
Jednaćelka
Informacije
Immer
INTERVIEW
Hochkirch
Hermana
Herkunft
Herausforderung
Hajna
HSG
Gertrud
Gen
Freunden
FUEV
Europske
Ernsta
Elza
Eimer
Dubaw
Dorothea
Dopomnjenki
Darf
Daj
Chróšćenjo
Carola
Bundesrepublik
Bulank:
Budyšina:
Brüssel
Brycka
Brnje
Bremen
Božidara
Bogumiła
Bogumił
Bluń
Biosphärenreservats
Bestimmungen
Beschlüsse
Berlinska
Beispiele
Baltiskim
Auswahl
Anliegen
97
6,
45.
270
20.30
1866
1849
1839
167,
112
.,
(mjez
''Serbske
##N
##(
##ó
##wi
##uje,
##skimi
##nt
##lle
##ku,
##jako
##innen
##ili
##ern
##ami,
„Moje
„Chcu
„Ale
župu
župnym
žołma
žonam
žiwnosćerja
žiwidłow
Župa
šěršim
šulerske
štwórćina
šefredaktora
šalce
čłowječeje
čłowječeho
čista
činimy
Čestne
złotym
zwuraznjeja
zwoni
zwjazane,
zusätzlich
zuletzt
zrudne
zrozumliwe
zrowastanjenje
zrani,
znajmjenša
zmóžni,
zhubja
zhubił
zhromadnosće,
zhromadnosć,
zhotowjenju
zhonić
zešiwkow
zešiwki
zetkach
zestajenju
zboža,
zbliži
załožboweho
začuwaše
zastupjerjam
zaručić
zarjadniskich
zapřijate
zapiskow
zapisane,
zajězd
zajimawej
zahudźi
zadobychu
x
wěš,
wěsta,
wěrnosći
wčerawše
wólbje
wušłej
wušiknosć
wučbny
wuznaća
wuznamnu
wuwučowanje
wuwiwanju
wutrobu,
wuswětla
wuslědkami
wulěće
wulkotnu
wuhódnoćenje
wožiwjenju
wołtarjej
wołaše
wozrodźenju
wowka,
wotbłyšćuja
wotběhu
wot-
wosoł“
wosobami
wosmich
wosebitosćow
wopytowarja
woprawdźitosće
wopon
wopominanju
wokolinje,
wobćežne
wobwodźe
wobwod
wobsedźerjo
wobkrućić,
wiederholt
wen
wašnjow
wašich
vollständig
vertreten
u.
třěšny
twarjenjach
twarić,
tučasnje
trěbnosći
trajny
trafen
towaršnosći,
towaršnostnymi
titla
tekst,
teho,
techniskeje
te,
słaby
syna,
swěcy
swěca
swobodneje
swjatočny
stwórby
stwow
stworił,
studni
strategiju
stoł
statoki
sta,
spěwarjemi
spěwarja
spóznali,
spytamy
sportowu
spisana
spektrum
sozusagen
solistow
solches
socialistiskich
sobustawami
slědźer
slěborny
skućićeljo
serbskorěčneje
serbskorěčneho
sekcijow
schadźowaše
scenow
samo,
rukopisy
rub
rozžohnowanje
rozmołwy,
rezoluciju
referenta
rechten
radźi,
pśecej
přiwoła
přisłušny
přisłušnosće
přisadźi
přirunować
přichadźa
přećiwk
přezcyłnje
přepodaću
přebywaja
pěstowanja
póda
pušćenje
pućom
ptačim
prózdnjeńcy
pruskej
procesiony
prašam,
prawopis
pozbudźi
powětra
powołanskeje
popłatki
politiku,
podam
pobrachowace
plan,
plakat
pilnych
originalnej
orchester,
opus
oktobra:
objektiwne
někoho,
něchtóžkuli
noweho,
njewotwisny
njetrjebam
njesćerpnje
niemals
nawodnych
nawjedować
nastupje
naslědnistwo
napjatosću
napisać,
nanje
naležnosće,
najwažniša
měšnisku
měšniski
městnosće
měsačnik
měnjachu,
móžeštaj
myto,
mužam
mu
motiwami
modlerske
mjeńšim
misionarojo
misiona
metoda
meter
medijoweho
mašina
materiala,
lětdźesatkaj
lěpšu
läuft
lutowanja
lubić
list,
linka
kěrlušu
kupcam
krasnych
kralestwa
krajnu
krajemi
kopica
konkluzije
koncentruje
kompoziciji
knižnym
knapp
klětku
klóšterski
kluby
klawěrny
klar,
kašubskeje
kapitana
kanonik
kanala
kamjenju
kalender
kabaret
jězorinje
jubileju
jedni
interpretow
instrumentow
inmitten
ideje,
hłuboku
hórnistwoweho
hódnoty,
hrajnych
hrajnu
horow
horje,
holcam
hodźał
historikar
hinašej
hdźežkuli
gymnazij,
größere
geschaffen
generacijam
gehörte
gegeben,
freien
filozofije
filmoweho
film,
festiwale
farsku
er,
elektroniske
eksemplary
ekonomiske
dźakowachu
dóstanjemy
dyrdomdej
dwójne
dušinje
ds.
dróhi,
dopomnjenkach
dopokazuje,
dopokazuje
dodać,
docpěchmy
diplomowe
dekanatneho
deficit
cuzby
chěžow
chroniki
chorhojemi
chodojtypalenje
chibazo
centrumom
centralnu
běža
bytostny
budźić
brónje
brjoze
breiten
braški
bratrami
božim
bohatymi
beteiligt
bereiten
barbnych
barbami
awtorom
awtorku
Zollitsch,
XVI.,
Wysoka
Wuchadźišćo
Wróćiwši
Wita
Wina
Wiese
Wałdy
Waltraud
WUHLADKO
Vorgehen
Volleyball
Verwirklichung
Vertretung
Verhalten
Uta
Unterrichts
Titul
Tim
Statna
Spěwy
Smoler”
Slepom,
Slawen
Sind
Serbowku
Sejm
SdPL
Schwerpunkte
Schuster
Schlüssel
SS
SERBSKE
Rozdźělne
Romow
Rohne
Richarda
Revitalisierung
Regen
Přirunujo
Prosymy
Prezidij
Prawidłownje
Planung
Pittkunings
Pflanzen
Oliver
Olaf
Oberlausitz-Niederschlesien
Nětčiši
Nukowa
Nawopak,
Naraz
Namjety
Mytom
Moniku
Mitgliedschaft
Mitarbeiterinnen
Minuten
Meter
Maš
Marion
Majka
Lok
Lessingowym
Lehmann,
Lazar
LIPA
Kulowskich
Kuby
Krawcom
Kotru
Komisija
Kampf
Jer
Jendźelskeje
Jasnje
Jahrzehnte
Isy
Indiskej
Husce
Herrlichkeit
Heide-
Hantušowa
Güntera
Góry
Guttenberg
Grüne
Geh
Gaststätte
Foto
Flächen
Ferdinand
Experten
Evangelium
Evaluation
Eugen
Eröffnung
Erfurta
Ereignis
Ele
Einladung
Einblick
Ecke
Dubrawje
Dominik
Dienst
Davon
Cyłkowna
Concordia
Chróšćanskim
Běły
Budestec
Boh/ač
Bjedricha
Bizoldec
Berlin,
Belange
Barmherzigkeit
Arbeitskreis
Alena
Afghanistana
2007.
2006.
1875
1870
(Z
##):
##%
##łoj
##wo
##ujemy
##sći
##sy
##st,
##osću
##je''
##cht
„Nětko
žónskeje
župne
žiwidła
židowskich
židowski
štyrcetych
šesćo
ě
činili
Čornobohom
ćežku
złeho
zymskej
zwjazkowu
zwjazanosće
znaja,
zhromadźizny,
zeznali
zeznachu
zesłodźeć
zesylnjenje
zdźělił,
zdźělichu
zběrniku
začuća,
zastojnikam
zasadźeć,
zasadny
zarjadować,
zapławjenja
zakónčenja
zahorjeni
zahorić
zadźěwki
zadźerženju
wěstotnych
wěcowne
wótry
wólbneje
wzał
wysokimi
wučerstwo
wučerskich
wuspěšnej
wurisanju
wuradźowanjow
wuradźowanjach
wupřestrěwa
wuchadźeć,
wuběrkom
wubranki
wróćo,
wozjewjena
wotwobara
wotstawki
wotkryć
wosudźe
wopytane
wopraša:
wopomnišća
wola,
wokomik,
wojersku
wohnjowej
wobroće
wobdźělištaj
wjelelětny
wjazane
wikara
wies
wabjenske
verwenden
třělenje
tysacami
tykancu
tykancom
tworić,
tutemu
turněru
turneje
turistiskeho
tuchwilnej
traditionellen
tradicija,
titlny
teoriju
teoriji
temperaturach
teksta,
tehdomnišim
tamneje
słužachu
słuchachu
słowjanskemu
symbole
sydlišćow
swětłowobrazowy
swojorazny
subjektiwne
studierte
straty
stotki
stila
stejimy
steckt
stawizniska
stafle
stadiona
spät
spušćomnje
spominaja
spisach
sorgt
solistka
sobuskutkowacy
smuhu
skutkownosći
skutkowace
show
serbskej,
serbskaj
seminary
selbstständig
schadźowanku
sakramenta
rozsudźiło,
rozsudach
rozprawješe,
rozměr
rozdźělenje
reprezentantow
repertoire
reformaciji
referentka
realny
radźićela
přizjewjenje
přispomni,
přirunuje
připóznate
přikładami
přikładach
přikaza
přihladowar
přidružichu
přichadźachu
přełožowaše
přełožkach
přećow
přećelnym
přezahe
přewozmu
přewjeduje
přeswědčeni,
přeprosyli
předšulske
předčita
přednošował
předmjeta
płoninje
płaćizna
pyši
pytajo
pyta,
putniski
putnikam
pusćinje
pruhi
prosymy
projektowe
programowy
procentaj
priwatna
princ
prašeć:
požadanje
posměwk
ponowić
pomhał,
polo,
pola,
pokuty
podźělom
podpěruja
podpěru,
podpisachu
podobnej
podobneho
pisar
pisanosć
pilnym
paćerjom
offiziell
němskorěčnej
něchtó,
nócny
nowinar
njeńdźe,
nječini
njewšědna
njewočakowane
njesprócniwe
njemóhł
nja
nimaja,
nawuknu
nawodnistwom
nawjedował,
nastroj
naspomnjenje
naspomnjene,
naslědnikom
naležnosću
nakładnistwa,
nakładneho
najwyšej
najmjeńšeho
nahladnu
nadawkom
nacistiskeho
młodostna
měrca:
mólbu
mzdow
myslička,
myslach,
mysla,
mužemi
mojedla
modelu
modele
misionstwo
ministrojo
melodijow
meist
mašinu
maćernym
materialijow
masy
mache
lěćo
lětstotkom
lubym
lubowar
laut
křižerskich
kładźe
kwětkow
kwasnym
kritice
kriterije
kralowski
korjenjow
kontowe
konjemi
knihownju
kmanych
klóšterskeho
kermušne
junij
jewišćom
jednotliwy
jedna,
irgendwo
internat
informuja
informacije,
industrija
höchste
hórnistwa
hraću
hrajerjow,
hrajerjej
hosćo,
hodźinku
hodźinki
hlada,
hieß
hast,
h.
gmejny,
gewisse
gestellt
general
gelang
geboren
formy,
folklornych
folklorne
folklora
folgen
filologije
figuru
februara:
erlebten
erklärte
eingesetzt
dźěłali
dźědej
dóńć,
dóndźe
dyrbiće
dujerski
dujerska
duchom
družču
drjewjanych
dopokaza,
domčku
domy,
domskim
dolarow
dokładny
dohladom
docpěću
dochadźa
diplomowy
diesjährige
dialogu
delnjo-
december
dankte
dalekubłanja
cyłkowneje
cyłkownej
cyłk,
cyrkwičku
cuzeje
cup
citaty
chowa,
bywaše
bringen
bratstwo
božemje
božedla
betrifft
betrachtet
basnika,
awtor,
aspektami
akcenty
adwentnej
abgeschlossen
Zustimmung
Zjawne
Zhromadźizna
Zhorjelskeje
Zeitungen
ZdK
Załoženje
Wólby
Wójna
Wuspěch
Wuchodźiwši
Wowka
Wonka
Wojerecy,
Wendenkönig
WITAJ-Gruppe
WITAJ,
Versammlung
Urteil
Tydźenja
Thiemann
Teich
Strowotnej
Spěchowanje
Spominanje
Sorbisches
Sorabija
Smjerdźečanska
Situacija
Sewjernej
Serbowkow
Schäfer
Schluss
Schiller
SSV
SP
SLS
Rjedźic
Rakečenjo
Radiborer
Quelle
Přichodna
Prapremjera
Post
Pančic-Kukowa,
Ow
Něchtóžkuli
Něchtó
Njewěm
Njebjelčanscy
Nazhonjenja
Natwar
NOWINY
Mund
Mittagessen
Mikławšku
Michaelom
Maxa
Mariana
Lösung
Ludvik
Lorenz
Libš
Lenka
Lasst
Kwa/sniewski
Kurjo
Kulturna
Kreistag
Kohle
Kobjela,
Katze
Julija
Josepha
Janaš
Jakubaša
Immersion
Hórčanskeho
Hospodarski
Hlej
Herrmann
Hannoveru
Gästen
Gutes
Gut
Gräfe
Glaube
Gesetzes
Ganz
Fördermittel
Fußball
Francoskeje,
Forschungen
Fiedler
Farben
Fahrrad
Fachkräfte
Elisabeth
EUR
Dyrlicha,
Dyrbjach
Drježdźanske
Deleńk,
Dauer
Chołmc
China
Błóta
Běłym
Budyšinje)
Bist
Betreuung
Bald
Angelu
Afrika
95.
8.00
3,
2:2
1:3
1877
1869
1846
13.40
115
104
,,To
,,A
(bjez
(PDS)
##Z
##H
##C
##?
##6,
##20
##ćo
##ów
##y“
##ych,
##wych
##tion
##kec
##itz
##hen
##fe
##ei
##e:
##ciju
„Handrij
„Das
“Po
železnicu
žanomu
Žid
špatnym
šole
škitar
łužiscy
łuku
čuwy
čitaš
čitanske
činju
činjachu
Čóška
ćežišćow
älteste
złožić
złoženju
zymskeho
zwólniwych
zwučuje
zwrěšćenju
zwaži
zuständigen
zumindest
zmóžnić
zmužitosć,
zhubi,
zhotowjene
zhotowja
zhladuja
zentralen
zeigen,
zdźělence
zdobom,
zdalenosće
zdaleneho
zběrać
zbytne
zbrašeni
zbožopřeća
zańdźenym
zawoła
zasudźi
zastupnu
zastupne
zarjadował
zapłaćić
započała
zapisu
zaměrnišo
zamóhli
zaleži,
zakónčacym
zakonjow
zajimuja,
zachowanja
zachod
zabawy
wěčny
wěnowachu
wóń
wólbnych
wächst
wzali
wučomnikam
wučini
wuznamjenja
wuwjedźenjow
wuwiće,
wuwića,
wustupuja
wustupom
wuspěch,
wurazne
wupraji,
wuměłskemu
wujednanju
wuhotował
wuhotowana
wuhladachu
wuchadźace
wsu
wróćić
wočakować
wočakowanjam
wotpokaza,
wotnutřka
wotnožka
wotlěwa
wotkryću
wotjězda
wotewrjeni
wotedać
wosebitymi
wosebitosćemi
wopytali
wopominachu
wopisuja
wojowanju
wojerski
wojakam
wobswětowy
wobstejnosćam
wobstać
wobstatka
wobei
wobchadźeć,
wjeselić
wjednistwje
wjednika
wikach,
widźeli,
unterscheiden
unterrichtet
unterhalten
tydźenik
tworićelskeho
twarnišću
turisća
tradicionelnym
touristischen
tola,
teorije
teologiske
tematiske
techniku,
tačel
słowakskeho
słabych
sćěhować,
sćežka
systemow
systematisce
swójstwo
swjećiznje
studenća,
strukturach
strowotu,
stejacy
starosće,
starke
sportowc
spodobny
spisowna
sowohl
soll,
socialistiskej
składnosćach
sitzen
serija
serbšćinje,
septembra:
selben
sekretariat
sejmje,
schriftliche
saněrowanja
sadźe
rěčacy
runinach
rumy
rozłožuje
rozumi,
rozsudna
rozeznawać
rein
rańšej
razne
radijo
přisłušnicy
přijimarjow
přichod,
přežiwjenje
přećelny
přećahny
přewinyć,
přesydlenje
přerězku
přepytowanjach
předsyda,
přednošowachu
předchadnicy
płaćiznow
płaći,
pućować
pućowacych
publikaciju
psalm
prěnimaj
protokol
profeta
prefekt
požadarjow
požadany
pozběhuje
powědce
powójnskeje
postajeja
poradźować
pomjenowanju
pokutu
pokročowanju
podaća
personelne
pedagogiski
pedagogiku
paćerju
patrona
papjerje
němskorěčna
něhdyšimi
näher
nutzt
nowše
nowostki
njetrjebaš
njetrjebachu
njerěka
njepřećel
njeporadźi
njebudźe,
našeju
nazhonił,
narunanje
narodnostnu
narodnostna
narodniny,
napřećo,
napinace
namjetach
nacistiskim
nabožnymi
městne
mólby,
momenty
mojemu
modlachmy
mjezsobneho
mjezsobna
mjezami
misionstwa
metra
maćeršćina
maturu
lětniki
lětna
lěsne
ličeše
literatow
lebt
league
lasst
křesćana
kóždužkuli
kóždeho,
kwasach
kwas,
kulojteho
kulisy
kubłanskeje
kritiskeho
kralownu
krajam
kože
kontrole
konjacych
kolokwij
klimy
kaza
katastrofa
kamjentne
jědźechu
jědu
jutrowneje
jejkow,
jasnu
jabłuka
instancow
infrastrukturu
informierte
ideologije
hórka
hrěch
hródźe
hrajnišću
hotuje
hnada
hladachu
hinašimi
hidu
hasach
hamtski
habil.
gremijow
financneje
financnej
fantazije
fantazija
ewangeliju
erreichen
elementow
efekt
dźěłow,
dźěłodawar
dźěłarničku
dźěłali,
dźěćina
dóstanješ
dworowy
dušepastyrstwje
družina
drohi
dołhodobne
dowolnosću
domjacnosć
dojednali,
dobje,
deutschsprachigen
delnjołužiskich
dalokim
cyrkwjemi
chudy
chudobu
chronika
chorobne
byrgarske
brošurku
brach
božeje
blok
besuchten
bazilice
basnistwo
balet
bajce
aktiven
agenturu
agenturje
ab,
Zejler,
Zawodne
Zapósłanča
Zahlen
Wšón
Wótc
Wužijće
Wokrjesny
Wojacy
Wohnung
Wjeselic
Wjednistwo
Wittig
Wirthec
Weber
Turkowskeje
Trachten
Tour
Terezy
Tat
Tanz
Struktur
Smochčanski
Smječkec
Serbow"
Satz
Sachsen,
Režiser
Ratajczakowa
Rakec,
Přećeljo
Přerěznje
Premiere
Prašenja
Prawoćic
Prawje
Poměr
Polakam
Pogody
Patokec
Oratorij
Obersorbisch
Nowinki
Njewšědny
Njeswačanskim
Nižozemskej
Niskej
Nimm
Neda,
Nawod
Natuš
Narodna
Nalěto
Najradšo
Młynk,
Mužakow
Muce
Mišnje
Mina
Maße
Mario
Mainzu
Madźarskeje
Ludowa
Loch
Lehrer,
Langec
Landwirtschaft
Landeskirche
Können
Kućank
Knihu
Klin
Kaulfürst,
Kamjenica
Jězusowej
Jězusowa
Južnym
Juhosłowjanskej
Jesus,
Jan,
Jakubowym
Jakubej
Horje
Hamor
Hajnec
Hahn
H
Grjekskej
Gesicht
Geht
Folklorefestival
Energiju
Eli
Eingang
Dźěćacy
Domaška,
Dietricha
DO
Cyrkwje
Cyrkwinske
Chěžki
Chrósćicami
Chrystusom
Chołmca
Chowancy
Chorwatskej
Cali
Běłoruskeje
Bäume
Bundestag
Blisko
Biskopic
Begeisterung
Baseń
Bart,
Bank
Ball
Autoren
Angestellten
Ana
5.000
320
1901
1888
1835
101
(něhdźe
"Serbja
"Michał
"Jan
##0,
##’
##‘,
##či
##wanje
##ur
##sko
##ru
##owanju
##owanja
##ot
##land
##ion
##iju
##iert
##dło
##as
„je
„Swjaty
„Serbske
„Mi
„Dr.
„Do
“Wot
“Słužownik
žónsku
žónskim
žónskeho
žołmy
žołmach
žnjeješe
žiłku
židowskej
źož
šěrše
škitne
łopjenu
łaćonsce
łaty
Łobja
Łazu,
čornych
ćerpja
Ćisk
złožowaše
zwuraznić,
zwjazkach
zmysłom
zmysła
zlět
zjednoćeneje
zjawow
zhubili,
zhotowi
zhonich
zhladowanju
zdónk
zdokonja
zdawa,
zaćahnychu
zawěsćenske
zawodny
zasłužbnym
zastojnik
zasadźić
zasadźa
zaměstnjenje
zamołwitosć,
zalutowanja
zaběrachmy
wědźeli,
wěcne
wótčinu
wólbnu
wužić,
wužadanje,
wuńć
wutworja
wutworić,
wusudźe
wuradźowaše
wupłody
wuprajenjach
wumjetuje
wukubłanski
wuhódnoćenju
wuhotowaštej
wudatej
wuchodny
wozjewjenjom
wottwar
wotstawkom
wotpowědna
wotměnjawy
wotewrje
wostało
wostaji
wosobinskimi
wosobam
wosadam
worštow
wopytowarjow,
woprawdźiteho
woknom
wodźić
wodźeše
woda,
wobstarać
wobrazowe
wobkrućenje
wobkruća,
wobdźiwać
wobarać
wnučkow
wječork,
wjesnjanami
witana
vorher
unabhängig
ty,
tworjenja,
twojim
turneju
turizma
trotzdem
trajnu
trajacych
towaršnostnej
tolerancu
telewizijne
tačele
słyšeli,
słužby,
słownik,
słowakskeje
słowa:
sćěhowacym
sćelu
symbolow
swědomja
swójbami
swjećił
swjatkownu
surowe
sudniskim
studuje
stawiznopisu
staršu
stafla
spytam
spočatkach
spjateho
spisowaćelki
sorabistiskej
sobustawskich
sobudźěłaćerjow,
slědźerskim
slědźerjo
skutkowny
skromnych
sitzt
serbskego
selber
schorjenja
schlug
sameje
rěčo
rólach
rysy
rysowankow
rusku
ruska
rozšěrjenej
rozsudom
rozrisać
rozprawnistwo
rozmołwne
rozkćěw
romantiki
rjekł:
repertoira
reja
recensent
realizowanje
reakciju
přizamknychu
přirunowanje
připosłucharjemi
přinjesechu
přijěł,
přijomnu
přihladowarstwo
přihladowarjow,
přiběracy
přełožić
přewjedł
přeproša
přepodaće
překwapjenje
předłohi
předsydow
předstajiła
předewzaće,
předawa
pósłachu
pólnym
pódźe
pyše
pytnyć
pytamy
pycha
pućuje
pućemi
publikacija
prócuja,
pruwuje
programej
procentach
problemow,
problematiki
prezentować
premier
prašenjow,
prašenjom,
praša:
prapremjerje
prajimy
pozicija
pozadka
powołany
posudźujeće
postajił,
posoljo
pory
ponowjenju
pomnikom
politikarja
pokročować,
pokazało,
pohnuwa
poeziji
podaštaj
planam
pjećich
pjenježnym
pjekar
pianist
perfektnje
pedagogow
pažu
pasma
paradiz
organizował
obersorbische
něhdyšemu
ny
nowinach,
notwendige
njeńdźeše
njezwučene
njetrjebawše
njesprócniwje
njeparujomny
njemóžne,
njedóńdźe
njedosaha,
njeběchu,
naćiskej
natwarić,
nasyp
nastajić
naruna
napjeće
namjeće
namakam
najhusćišo
młodaj
měšćansku
měšćanow
möglichen
mytow
myslo
mustwomaj
motorskim
motom
morjom
modernymi
mjezach
mjenujemy
metrami
metodźe
mandźelstwow
magacina
lěsow
lěhwow
ludowědźe
ludospyt,
lońši
lebendigen
křižerskeho
kulowatu
kubłow
kubłaše
ku
kruhej
kredit
kralowskim
kralojo
koła,
korpus
korjenjemi
korespondency
kopija
kooperacije
kontinenće
konflikta
kolesowar
kolesami
knježerstwoweho
kn.
km/h
kiwa
kim
kemšerjemi
kemšach,
kedźbować,
kabinet
jónkrótna
jenički,
jednych
jatbje
jadrowych
interpretacije
internetnje
husy
huslach
hubjene
hrajerjom
hosćinu
horcy
holčka
hodowneje
hobby
hnady
hlej,
hinašich
größeren
gremiju
gitarje
francoskich
fota,
filmoweje
festen
faluja
ewentualnje
europska
erzählt
erinnert
entlang
ekumeniskeho
eksistowaše
ehrenamtliche
e-mailnje
dźěłaja,
duchowni,
drohoćinka
dožiwjamy
dowěru,
dosahacej
dorosćeny
domskeho
domiznje,
dojednanju
diskutowaše
dirigentom
dialogej
dennoch
demokratija
dało
darmo
damaligen
chwalba
chudźi
christliche
chceš,
centralna
běłu
brunicowych
braniborskich
blido,
biskopow,
bibliografije
besucht
beinhaltet
begrüßen
autochthonen
atomowych
apryl
ameriscy
allgemeine
adwentnych
abituru
Zyma
Zejic
Zahrodnikec
Yorku
Wšěch
Wölkowa
Wučba
WodaŃiska
Wjesnjenjo
Wjacsławkec
Weiterhin
Weiterentwicklung
Wašu
Wandel
Wagen
Vladimir
Vaters
Varnsdorf
Teile
Tagebau
Swěru
Swjatočnosć
Straube
Steinbach
Stat
Sorbischkenntnisse
Serb-
Selbst
Schule,
Schnee
Schloss
Schatz
Santiaga
SWW
Ruski
Richtlinien
Reformation
Recensije
Rakečanskim
Rahmenbedingungen
Přikład
Präsident
Porjedźenka
Popjela
Pirny
Perspektiven
Partnern
Pančicach–Kukowje
Pančicach-Kukowje,
Nowiny,
Nowaka,
Njewšědne
Nawječor
Nastork
Najwjetša
Nachricht
Měšćanska
Mjezynarodne
Mikławšej
Michale
Methoden
Marijiny
Madleny
Lěwica
Lutherowy
Lube
Liški
Lipy
Lesen
Křesćanska
Körper
Kostorž
Korjeńkec
Kontext
Konkretnje
Karsten
Jědnaće
Jakob
Jahrhunderte
Institutionen,
Ihm
Hłownym
Höhepunkte
Hórnik"
Hórka
Hudźbne
Herausgeber
Handrikec
Halštrowska
Giovanni
Gdańsku
Farbe
Fabiana
Europeada
Ekumeniski
Einstellung
Einnahmen
Dźiwadło
Dubrawy
Domowinjenjo
Dobrošicach
Deutscher
Delnjoserbow
Cyłkowne
Böhmer
Busha
Brigitte
Bratr
Boženy
Bohaty
Bevor
BDO
Aufmerksamkeit
Atmosphäre
Arzt
Arten
Arbeit,
Apostel
Američenjo
Ako
AS
2008.
1989/90
1873
1868
1861
,,W
(při
(pola
(a)
(A
''Die
##čk
##ón
##í
##weje
##weho
##ta,
##stwje
##pa
##owane
##owa,
##nymi
##mus
##men
##ken
##išćo
##ita
##i"
##gruppe
##e”
##es,
##bo
##a“,
##au
žórłach
žněje
Žurec
Žadanje
šěršej
šěrokeje
šwalča
štwórteho
šoferojo
Šulske
Štwórty
Špitanka
Šleca
Šewc,
łužiski
čisty
čistej
čiste
čestnohamtskim
ćišćej
ćežu
złóstnistwa
zwada
zuvor
zuby
znajemy,
změny,
zlěće
zjaw,
zhubjene
zhotowjeny
zhoniće
zeńdźenjach
zeznaću
zetkanja,
zesylnja
zestaji
zestajer
zdźeržeć,
zbudźić
załoženskim
začućom
zasydli
zastupnych
zastupjeny
zastupjena
zasadźeć
zasada
zarjadowani
zarjadowane
zarjadnistwje
zapadny
zakładow
zakónčene
wšědneje
wědomych
wědomostnikow,
wójnow
wužija
wuznać,
wutwarić
wutroba,
wustupować
wustawowe
wurjadnu
wupućowanju
wuměłskimi
wuměnjenja,
wumjetowaše
wukopa
wukonjachu
wuhotowar
wuchodna
wuběrnu
wubědźowanjach
wočakujemy
wočakowany
wočach
wotrězki
wotpokazanje
wotpohlady
wotewzaty
wotbagrowanje
wosobinskej
wosadnych,
wosada,
wopominamy
wonkowneje
wolu,
wokrjesu,
wokrjesna
wohroženja
wohenjow
wodarni
wobstejnosće,
wobstejacy
wobstarał
wobsadźenje
wobrjady
wobnowjomnych
wobnowjeny
wobknježenja
wobknježa
wobdźiwachu
wjesnjanosće
wjesnjanostow
wenige
weißt
wa
verbindet
verbessert
unmittelbar
tydźenjomaj
twoju
twjerdźi
twarstwo
trochuje
tritt
trenarjom
trawniku
tragiske
tradicijemi
tekstow,
tajka,
słowam
sćěnach
sćěhowacy
sćele
swěčkami
stworjenje
studentskich
strowym
stronskeho
stronske
stronami
stellvertretenden
steještej
stawizničku
statusa
startowachu
starobne
stany
stalinizma
stajnu
stajna
stajeja
spěwnu
spěwaja,
spóznajemy
spočatkom
spominanje
spjelnjenju
spjelnić,
spisał,
spi
sotram
solist
solcher
sobustawa
smjerć,
skrótšenje
skruća
skandal
sinfoniski
serbskosći
september
schwere
schwarzen
schodźenku
schodźenka
sanitarne
sami,
sahen
sahace
róža
ruče
rukomaj,
rozžohnowa
rozpušćenju
rozmołwam
rozjasni,
rozdźělnym
rozdźěli
rjemjeslniskich
rjadnikow
reprezentanća
rejwanske
regionaler
recitowaše
ratarskim
raka
přizemju
přitomnych,
přitomnosću
přirunowaše
připóznaćom
přijimanje
přihotowała
přiběra,
přewinychu
přeswědčenja
přesahuje
předawachu
płód
pěstować
pódlanskim
pytny,
pytali
pućowanskeje
prěnjotny
prědarskeho
prózdnych
projektowy
projektoweho
problema
prašenju,
prawych
połnych
połlěće
počesćenju
pozitiwnych
potwjerdźi,
potrjecheny
posudźowanju
poskićachu
poradźenje
pomodlichmy
poliwku
policajskeje
policajskeho
pokazkami
pohladnicy
pismikach
persönliche
personalnych
pedagogiskim
pastoralne
paradu
organizacije,
opozicija
ofensiwu
něnto
němskej,
noworjadowanje
normalnje
njezbožow
njespokojnosć
njemóžachmy
njedźelne
njedosaha
njedawna
njebja
narěčach
napisała
nannte
nakładnych
nakładnistwow
najwěsćiše
najmjenje
nahrawanja
nahlad
nabožna
mši,
młódšeho
měšniskej
měnjenjow
měch
myslemi
mylnje
murja
motor
mjeńšinowa
mittlerweile
mit,
meje:
medijow,
masowe
mandat
magacin,
lětnej
lětdźesatkomaj
lěpša
lěhwach
lyriskich
lektorat
lajskim
lajskeje
křesćenjo,
kćěje
kurzen
kubłansku
kriterij
kow
korjeni
konkurencu
konkretneho
konjacym
kongregacija
konfirmandow
komunach
komorneho
komisar
kombinata
koaliciji
knjezow”
klětki
klóštra,
klasach
kenne
katastrofu
kartow
kachle
jězbnu
jubilejneho
jewišćowe
jewišćach
jene
jednostronsce
jaden
impresije
ihm:
hłownemu
hóstne
hórku
hwězdnych
huby
hrubym
hotowa
hospodliwosć
horliweho
horcych
hajnik
haji
gymnazijow
großem
gmejnscy
gleiche
gezeigt,
geworden
gestärkt
gekommen,
fröhlich
fragte
fotowa
filmom
festiwalach
fertig
fakulty
eurow)
euroregiona
ekonomiskich
einfache
dźělne
dźiwadźelenja
dźerža
dóńće
dypkach
dušu,
duchowny,
družinu
drohe
dožiwjenjemi
dopomnjeće
dopomni,
domjacymi
dodawk
dnjowe
dirigowaše
diktatury
demokratiskeje
delnjołužiskim
deficity
cyłkowna
cistercienski
chronist
chorownju
charakter,
běrny
bydlenske
budźetaj
brunicowej
bomby
biografiju
besuchte
beschrieben
berufliche
berichtet
begrüßt
befinden
beachtet
awtoritu
ameriska
alternatiwy
allen,
adwentničku
[
Zwjazkej
Zakładny
Zakop
Wučerjo
Wočiwidnje
Wotrowske
Wosadni
Woheń
Wladimir
Wjetši
Wjesna
Wažna
Wašeje
Wałtar
Wahlperiode
Verso
Vatikanom
Twoje
Turm
Toyota
Teufel
Tanten
Tagesordnung
Słónco
Słowakow
Symank
Sturm
Spielen
Som
Smochćicach,
Smochćic
Smjerdźečanskeje
Siegfrieda
Schwierigkeiten
Schillera
Salowje
SA
Rücken
Räumlichkeiten
Ruth
Rosenthal
Roma,
Rechts
Rakečanski
RBB
Přińdźe
Programms
Prawo
Poswjećenje
Perspektive
Orten
Oma
Ohren
Oelßner
Něhdyša
Njemóže
Njedaloko
Narodny
Muski
Moderator
Ministerka
Mila
Michałej
Medije
Matice
Marku
Malinkowa,
Ludmilu
Lipsčanski
Lipsčan
Lanzyna
La
Křižnej
Kulowscy
Kulowa,
Krankheit
Krabat,
Kongres
Kompetenzen
Kollegen
Knihi
Katowicach
Kathrin
Kapitel
Kamjencom
Kaiser
Julius
Johannesa
Jimaj
Jezaja
Jednoty
Initiativen
Hórnik,
Hus
Hodźiju,
Hodźi
Hey,
Haushaltsplan
Hanka,
Hance
Gründen
Grund-
Gros
Grammatik
Gizela
Gemüse
Fächer
Fläche
Filipa
Fabricius
Europskim
Eule
Eric
Ereignisse
Erden
Enrico
Dźensniša
Dyrbješe
Dyrbjachmy
Durinskeje
Dokładnje
Delnjeho
Darum
Dalokož
DY
DSVTh
Cušcyna
Corolla
Christiny
Budyšanka
Brězanom
Brückner
Bruk
Boxberg
Bildungseinrichtung
Bildern
Berlinske
Berge
Beneficny
Benada
Beachtung
Band
Bahn
Aufgaben,
Arnd
Argentinskej
Antonius
Abatisa
4,5
380
2006,
1995,
1878
1842
135
132
1,6
1,4
01920
0,30
...
-a
,,Wo
,,K
(wo
(lětnik
(KP
"Za
##12
##šća
##štaj,
##če
##witz
##ut
##und
##ował
##nskim
##nska
##nicy
##moj,
##mo
##lichen
##iša
##ieren
##ein
##cije
##any
##ale
##ag
##aciju
##a'',
„Pola
„Kóždy
„Haj,
“Ze
žurnalisća
žort
žnjow
Židow,
źěło
šwarna
šulstwo,
šulerja
šefojo
Šwicarskeje
Šulski
Šramina
Šołćineje
Łuce
čłowječu
čłowječich
čornej
čorna
čitaštaj
česćownosće
časopisy,
Čěsku
Čerwjeneje
ćělesow
ćišćaneho
üben
Übersetzung
zwěrjenca
zwólniwosć,
zwólniwa
zwyšić
zwučowanju
zwołać
zrudobu
zničenju
zničenja
změni,
zhromadźiznu,
zhotowił
zeleneho
zbožom
zawostajichu
zastupować
zanjesu
zaměram
zakónčichu
zakonjach
zakitować
zahiny
zahajić
zachować,
wšeho,
wědomostnik,
wědomi,
wćipnych
wužiwaja,
wušło
wučbnicu
wuznamjeni
wuwučowaše
wuwjedźe
wutrobnym
wustupowachu
wustajeńcow
wuspěšneho
wuspěchach
wurjadnej
wupućowarjach
wuprawy
wuměł-
wulkosće
wukřćić
wukubłanjom
wukonjał
wujasni,
wuhlo
wudźěła
wuchodoeuropskich
wuchadźejo
wuběrneho
wuběrk,
wubědźowaše
wotrostł
wotewrja
wotchad
wospjetne
wopřijeće
wopomnjeće
wopominaja
wopisowaše
wonkowna
wolić,
woknow
wojować,
wojerskej
wobłukowe
wobrubja
wobmjezowany
wobchody
wobchadnu
wječornikej
wjesnjanosća
wjeselimy
wjedźe,
widźiš,
wesentliche
wersije
wehrmachty
wašnjach
vorgestellt
vorbereitet
vielfältige
versucht
vatikanski
ungefähr
umliegenden
tätig
tworitej
twarsku
tut,
tunl
trjebali
trifft
traje,
tołste
towaršnosć,
titulow
słyša
słabje
sćěhowacych
sćelakej
synojo
sydlenskim
swědomjom
swobody,
sudnicy
strowoće
strowotny
strowotnistwo
stražnik
stawiznarjo
starće
starał
stajił,
spěchowanski
spytała
sprawnosć,
spowědnych
spokojnosć
specielne
sorgen
sorabistiskim
solidarnosć
sichtbar
scyła,
schowane
samostatnu
samostatnosće
samostatneho
rěčeli
rědke
róže
rysowankami
rybow
rukopisa
rozšěrjeny
rozšěrjena
rozdźělenju
rowom
rosćeše
rjećaz
rjadownjach
rjadować,
rjadniski
richtet
referata
reden
ratarskeje
ramik
přirunowanju
přirost
přirodneje
připóznaće,
přihrawce
přichwatali,
přichodom
přećach
přewzała
přewjedli
přeslědźenju
přesadźić,
přeprošenja
překwapichu
přeješe
předstajištaj
předpisy
předkole
přebytka
pěsnjemi
póstnicy
pódlanskich
pädagogische
puća,
programowe
produktow
priwatneje
prestiž
prašeše,
prašenjach,
pozastachmy
powěsćach
powědanja
potomnik
postrownych
postarał,
postajenjow
poradźenym
pomocnikam,
pomnik,
pomałšo
polěpšenju
pokročować
poetiske
podležachu
pobych
pjenježneje
pisaše:
pilny
periodźe
patrej
pasažěrow
partnerstwa
partnerskeje
p
operaciji
offene
němskorěčneje
nyšporej
nuzowany
nowšim
no-
njeznateje
njewjestu
njesměło
njesměrne
njerozsudnje
njecham
njebjeske
ničim
načasneje
nazymnika
nazwučowa
nawuknyli,
nastork,
nastała,
naprawy,
naprawa
napjata
najnowšej
najdlěje
nadźijeja,
nadarjeny
nachwilne
měšnikami
měsačne
měsacami
móžna
mzda
myslene
muskich
muske
mudrje
motorske
mosćik
modlili
mnich
mjezsobnu
misionski
minutow
mehr,
medije,
mediciny
maćiznow
lětanišćo
lěpšim
lyrice
lubo
lisćik
ležownostne
lepichu
legten
lebendig
lag
křižoweho
křiža,
kumštnje
kuchnju
kubłarkow
kročić
kralej
korektury
koparska
kontaktach
komunje
komunistiskeje
komunikaciski
kompleksa
kommunale
komme
komisije,
knježeho
knižneje
kmani
klubow
kižje
kerki
kapłanom
jěcharjo
jednotny
jednotliwi
jasna
interpretacija
intendantka
integracija
hłós,
hłubokim
hórke
hwěžkami
hrěcha
hrodom
hosćićelej
hosćinje
hospodu
hospodarstwa,
hornjoserbski
horcej
historiju
hercow
hele
heißen
halte
grafikar
gemeinsames
geben,
for
filmowym
filmowcow
facit
erwartet
ermöglichen
ergänzt
erforderlichen
erfahren,
entwickelte
edicija
dźěłała
dźělić,
dźeržeć,
dźakowny,
dźaknym
dóńdźe,
dypkaj
dwórnišćo
duchowneho,
družinje
drogi
drastowy
dowěri
domiznu,
doběža
dobyćerjej
dobroty
distancu
dich,
demonstrantow
demonstraciji
delnjołužiskeje
delnjoserbšćinu
delni
darił
chěžu
chcyštaj
běchu:
bě:
być:
bydlaca
bychmy-li
burskej
budźeće
brošurki
brošurka
bojow
bleibt,
bjezdomnych
biografiskim
bin,
bilancy
betonte
bestehen
beraten
baje
awta,
aufgenommen
apryla:
apelowaše
angeboten
alarm
akordeonje
adwentneje
achtet
Zweck
Zejicach
Zdawa
Zazběh
Zamołwity
XI.
Wěcna
Wón,
Wuznamny
Wustajeńcu
Wuměłstwo
Wuměłski
Wostanje
Wolfgangom
Wjeska
Wjazońcy
Wien
Westen
Waršawje,
Vorschriften
Vorbild
Voraussetzung
Vier
Verbindungen
Tych
Tor
Tes
Telewizija
Tebi
Team
Słowjanske
Sünde
Sudnistwo
Suchec
Student
Stanislaw
Stange
Stadtverwaltung
Staaten
Sprachräume
Smolerjowe
Skedźbni
Sicherung
Serbowce
Serbiskeje
Róžeńčanska
Rusku
Rumunskeje
Rauch
Rainera
Připołdnju
Pětroweje
Produktion
Połdra
Powěsće
Politiske
Parisa
Papier
Pančicy–Kukow
Pank
P
Ordnung
Něštožkuli
Němca
Nowostki
Nowostka
Nochcemy
Njeswačanskeho
Njeswačanska
Njeměli
Napřećo
Namakamy
Nachrichten
NDRskeho
Młynka
Märchen
Monice
Mohanom
Mjenowane
Miłočanskej
Milliarden
Michałka
Mazenod
Markt
Markom
Markec,
Malešanskej
Madźarskeje,
MIDAS
Lěpje
Ludvika
Lubnjowje
Ličby
Literarny
Lipjenjo
Křesák
Küche
Krótki
Kreuz
Krawže
Kosel
Kopańca
Komorowski
Kleiner
Kenntnis
Katolskemu
Karola
Karloweje
Karela
Kanclerka
Kajku
Jězusa,
Južnych
Jurju
Julia
Jelizo
Jaroměr
Insbesondere
Infrastruktur
Ideja
Höhepunkt
Hrajerjo
Hochzeit
Hildegard
Hańžka
Güte
Gute
Grab
Glas
Gewalt
Gestapo
Gesetze
Geschichten
Funktionen
Francoskej,
Finanzen
Felder
Facebook
Fabrikskej
FSG
Erbe
Eks
Einbeziehung
Eberharda
Dźens
Dorfes
Dokumentation
Doba
Clemensom
Chrystusowe
Chowanje
Casnika
CO2
Bukecach,
Brüder
Brojer
Biosphärenreservates
Bier
Beirat
Becker
Ausstattung
Aufklärung
Andricki“
Also
Ale,
A,
20lětny
1855
145
14.45
,,Za
##žu
##že
##štej,
##šich
##zo
##tny
##ster
##sta
##kar
##jmy
##it
##iskich
##d,
##ci
##ad
„Marija
„Lipa“
„Jeli
„Ich
„Bjez
“liški”
žurnalistam
žurlach
župana
Žylowje
Žura
Židźino
šěrokeho
šćedriwje
šwarnje
šeste
Šwicy
Španiskeje
Španiska
Šewca
čisto
čestnych
čerwjenym
čerwjeneho
Čěske
Čorneje
ćopłe
ćežemi
ćety
ćerpjeć
Ćišć
übernahm
älteren
»To
zrěčenjow
zrowastanjenju
zranjeny
zog
zniči
znać
znak
zmóžnjeja
zmysle,
zmužity
zjednoćene
zetkawachu
zesylni
zestajeć
zemski
zemje,
zběrki,
zbóžnoprajenski
zbližić
załožili
załoženski
zawjeseli
zastupny
zaručenje
zarjadach
zamołwitosću
zakazom
zahubne
zahajił
zadźěwa
zadźerženja
zabawneje
zabawneho
wšědna
wšostronsce
wětr
wčera,
wójnskeho
wójnomaj
wušoł,
wuznamni
wuzna,
wuzna
wustrowjenje
wustaji
wustajenych
wuslědka
wuskosćow
wuskich
wurunanju
wuradźuja
wupućowanja
wuprawje
wuprajenjom
wupisanje
wukrajnym
wujewja
wujasnja
wudobywanje
wuchadźachu
wróćił
wróći,
wrotarjom
wozom
wotydźenja
wotpadkow
wotměła
wotmołwje
wotjědźe
wothłosom
wotewrěć
wotewrjenske
woteběra
wopłóčkow
wopomnjeću
wopomnjenski
wolijowe
wojerskeho
wohroženych
wobšěrniši
wobzamknyła,
wobrota
wobej
wobdźělił
wobdźiwachmy
wobdarjeny
wjesni
wjacorym
will,
widźała
wem
wažneho
wažna,
waža
wašeje
warianće
wanju
wanja
unten
umso
třěše
twary
turistiskich
trěbny,
trinke
traja
tohorunja,
titule
telewizijnym
telewizijnych
technologiju
techniska
tajki,
tachantstwa
słužbne
słowu
słowakskej
słabym
sydlišću
swěrnu
swjećenje
swjatoku
sudobja
stärkt
stykach
stwo
struktury,
strowa
stołpow
staćanow
staćan
stawiznje
stawiznami,
statt,
statistiku
startowaše
starosći,
srědk,
spěwej
spěwarjow,
spytaše
spušćomne
spominać
spominali
spjelnja
sorabistiski
solch
socialistiske
slědowacy
skupinki
skeče
signale
sferje
seriji
selbstverständlich
sekretarom
schrieb
schlechte
schauen
scenami
sama,
sagen:
sadźa
sa
rěkać,
ródne
ródna
rybu
rubrice
rozsudźili
rozsudnym
rozpušćenja
rozmysluje
rozkory
rozhłosowych
rozhłosoweho
rjadnicy
rjadnica
rewolucija
reji
regional
regelt
referentow
referaty
redaktorojo
ratarstwo,
přiłohu
přisłušacych
přiswoji
přirodnje
připóznać
připowědźene
přikłady,
přiklad
přijědźechu
přełožene
přećelka
přewodźeja
přewinjenju
přeswědčenje
přesadźi,
přeradźa
přepruwować
přeprošujetej
přeprosyło
přepodać
přemysłowych
předźěłanje
předsudkow
předležeše
předa
płoninu
płodow
pěstowarni,
pósłał
pyša
pućowanska
pućowacy
publikum,
prěnjotne
proza
projektow,
proces,
prjedawšeho
princa
prezentacija
prašeć
požohnowa
počinki
poćaha
pozitiwnym
powědał,
powědar
potrěbnosće
poskitk,
posedźenjach
porjadku
pomha“
polnischen
pokładnik
pohódnoći
pohladać
pohlada
podawaše
pobožnosći
pjerom
pišćałce
pismik
pisaše,
picu
pedagogiskeje
passt
paslenje
parkowanišću
paralele
paket
padnył
pada
paar
optimistisce
oficialnych
nowinskich
nowinski
nowinarstwa
nowembrje
njewostanje
njewjesty
njesměš
njeběchmy
ničo,
nisko
nałožka
načasnej
naćiska
nawoženja
nawjazachu
natwarjeny
natwarili
narunać,
narownych
narodźe
naprašnika
napominaše,
napadnje,
namołwjał
namjetował,
nakładnik
najčasćišo
najwyšu
najmłódša
młódšeje
měšniske
městnomaj
měni:
módrym
muzejom
moment
mjeńšin,
mjenujcy,
mjenował
mišterske
misionarow
ministrantami
metodu
medicinu
lětušemu
lětnika,
lětdźesatka
lubuje,
lońšich
lońšemu
linki
leksiki
laufen
lassen,
křižerjemi
křidła
kěrchowa
künstlerische
kümmert
kwasnej
kultur-
kulisami
kuchnje
kubłarjo
kubła,
krucha
krajom
krajinje,
konkret
koncentracija
komplikowane
komentar
knježerstwow
knježacy
knižny
kmótřistwo
kmanosć
klóštrom
kliniki
klinice
kencliji
katechizm
kapital
kandidaturu
jutrońčku
jendźelskim
jednaćelom
jednać,
jama
italskim
interessierte
institucijemi
hłuboka
hłowach
häufig
hródź
hrow,
hromadźachu
hrajo
hospodarstwo,
hordosću
horda
horco
hodźoch
hnadowneho
hida
hamtskim
hamtske
hajenja
gratulowaše
gibt,
gewährleistet
gestaltet
genommen
genannt
geistige
gefallen
garant
fällt
fährt
funguje
frakciji
folklorneje
filologiju
filmowa
figury,
fiel
fašistiskeho
falsch
eucharistije
erschien
erlebt
erkennt
erhielten
endet
ehrenamtlich
ediciju
dźiwaše
dźaknych
duchej
druhim:
druhi,
drastow,
dowěrnikow
dorosćenych,
dopóznaćach
dopomnjenka
dopomha
dopokazy
dokładnym
dokumenty,
dokumentami
docpěte
dobry,
disciplinu
diferencowane
die,
desto
derbyju
delnjoserbšćina
daštaj
dało,
data
dach
ciwilizacije
cistercienskeho
chłostanja
chcyło
běda
byća,
busy
budgeta
bot
boja,
bliži
berufen
awtoweho
awtorce
awtodróhi
awstriskim
aufmerksam
architektury
ansamblej
anerkannte
akcijach
Zwjazka,
Znata
Zieh
Zhorjelska
Zhorjelca,
Zarjadowar
Wšo,
Wuraz
Wujězda
Wuješ
Wottud
Worklečanski
Wono
Wjetše
Wendisch
Waršawskim
Uns
Unija
Tónraz
Trjebina
Tomašej
Tomasza
Tamniša
Słowjanami
Sylwija
Swójske
Steglich
Sprecher
Spiele
Spaß
Sotry
Sorgen
Serbina
Schön
Schrift
Scholze,
Sander
Salowa
SNM
SN,
SKA
Rěka
Ryćerjec
Ruskej,
Rumburku
Rownom,
Rownoho
Rock
Reineltom
Regel
Realisierung
Ralbicy,
Radworsku
ROZHŁÓS
Quellen
Přiroda
Přeprošeni
Předstaji
Přednoški
Pětški
Pětrskej
Póstny
Póst
Putniske
Punkte
Publikationen
Prěnjotnje
Prědowanje
Prócowanja
Präsenz
Projektes
Priester
Pilz
Petzold
Pernak
PJATK
Oće
Ow,
Otu
Novellierung
Nihdźe
Neiße
Nachdem
NCAP–crash–tesće
Měšćanosta
Měnju
Müntefering
Müller,
Mróz
Mitarbeitern
Ministerin
Milbradta
Meerrettich
Martu
Manuel
Madlenka
Lipšćanskej
Lejnjanskim
Langi
L
Kubašec,
Krasne
Kranken
Kralec
Krakecach
Kraja
Konstantin
Kommune
Kilometer
Katholiken
Kapłan
Kantorki
Jutta
Jubilarka
Jenč,
Jandźelknjeza
Jakubica
Jacob
Investitionen
Ihrer
Ihren
Hose
Hornjołužiske
Hintergrund
Herausgabe
Hamburga
Haenchen
Gubin
Großröhrsdorf
Gmejnska
Fachschule
Fachoweje
Energie
Eines
Eigentlich
Dwaceći
Dróha
Diskussionen
Dirigent
Delnjoserbskim
Dawno
Dachauwje
Cyžej
Chiny
Chcył
Budźemy
Brězowce
Bratislava
Bosćan
Bohumila
Bistums
Bistum
Bernadety
Berlinskich
Benediktej
Baćońskej
Bacha
BUGA
Aussagen
Augsburgu
Augenblick
Atmosfera
Ansprechpartner
Andere
Analyse
Alte
Akademie
Abo:
5)
330
3.000
2011,
1852
1851
1,3
(wón
(SSW)
(*
''Serbski
##98
##9,
##89
##15
##š-li
##ču
##čanow
##y)
##wym
##usa
##u-
##s-
##rka
##ować,
##ort
##mu,
##len
##la,
##ist
##il
##ige
##i''
##gt
##du
##dla
##chi
##ca,
##berg
„Serbska
„Naš
“Der
žohnuje
žiwjenjoběh
žerdźe
železniskeje
žanr
šćežce
štučce
štomje
škódne
škrička
škody,
šansach
šalku
Šołće
łužiskimi
Łužicomaj
Łemkow
čitanski
činiła,
Čačko
ćežka
Ćežki
ältere
złotej
zwěsćiła,
zwěsćenju
zwěrjo
zwučeny
zwjazowace
zusammen,
znjesć
zhladować
zeznać,
zelenej
zela
zběratej
zbrašenym
zažnej
zašłymaj
załožiła
załožbowa
zasadźić,
zasadow
zaručić,
zarjadowarjow
zarjadej
zapoda
zaměrnym
zamołwitymi
zahorił
wšědnej
wóčce
wójska,
wójnskej
wzali,
wysokosće
wušomaj
wušikny
wuwił
wuwićowe
wustojnym
wuskutkach
wurunany
wurjadnych
wuprajił
wuměłstwowym
wuměłc,
wulkotnej
wujasnjenju
wuhra
wuhlowe
wudźěłkami
wudźeržowanje
wudospołnja
wudobywanja
wudawanja
wróćić,
wozjewjeć,
wozjewjeć
wozjewjenej
wotwisnosće
wotpowědujo
wotpohladom,
wotmołwješe
wothłosowanja
wotbłyšćowaše
wostali,
wosoba,
wopisowanje
wokrjesach
wokolne
wobšěrneje
wobsadka
wobrazki
wobmjezowanym
wobknježenje
wobjima
wobhladanje
wobhladanja
wobdźěłał
wobdźělene
wobchadźenja
wobchadny
wobchadneje
wobchadneho
wjesnemu
wjednicy
wjedli
witaja
wendet
weisen
wašeho
warnowanski
ukrainskeho
tča
tyje
tydźenjemi
twarjenja,
trójka
trenarjej
trawnik
trajaceho
texaskim
termina
tehdomniši
tajnej
słuchać
słowami,
sławnu
sćěhu
sćenju
swojorazna
swobodu,
swačini
susodne
subjekt
studować,
studnje
stołpa
stolz
stole
stipendij
stała,
stawow
stawje,
statysacy
statistiki
statistika
statistice
staršim,
startuje
staroba
standard
spěchowace
spózna,
spytać,
spominajo
spisanju
spisanje
sowjetski
sorbischsprachiger
sorabistiki,
socialistiskim
sobučłowjekow
sobotnym
směrow
slědźerski
slědami
sluby
skóržby
skónči,
skućićel
skutkowanje,
skromnym
setzte
serbstwa,
serbiskich
sekretariata
sebjewědomja
schulischen
schaffen,
sameho
róžkej
rozžohnowachu
rozumić
rozsudźił
rozsudnu
rozdźělnej
rownišćo
rjeka
rjane,
rezerwy
reformaciskim
reformaciju
redaktorow
realiće
rańši
raza
radu,
radlubje
přizwolenje
přiwozmje
přistupna,
přinošuja
přinošowali,
přinošowali
přinoškow,
přinoškaj
přihłosowaše
přichadźe
přiběraja
přesćěhanja
přesydlenja
přeswědčić
přeprosył,
přemyslować,
překwapjace
předsłowo
předstajenych
předstajenjemi
předstajene
předmjetow
předchadźacych
płomjenja
pěstowarskich
pčołki
pytanja
pychu
pušći
putnikami
putnik
prěduje
prócował
proste
projekty,
profesorka
prima
pred
prawosławnej
praktiskich
praktiski
praju,
połfinalu
poćahu
powšitkowna
powěsćernja
powědaja
powabk
potłóčowanja
posudźować
pospyće
poslednimaj
poskićić
poskićeć
porodźi
pomocnica
pomhali,
podźěle
podawkami
podawać
podali
pobožny
plant
planowanej
planowaneho
piše,
pismom
perspektiwa
pachoł
objekta
němskorěčnu
nóc,
nur,
nowinow
njeznaja
njezapomnity
njezamóchu
njewšědneho
njewěstosć
njewěmy,
njewě
njewoznamjenja
njesć,
njesebične
njedowěru
njedostatkow
njedosahace
njebjeskeho
nj
nennt
nańdźechu
nazymskej
natürliche
nastupja
nastupić
naročnym
naprawu
namjetam
najhórše
nadźijeć,
nadpismo
nacije
mšow
mšach
möchte,
móžnu
móžetej
mólba
mócnarstwa
mužojo,
muskim
modleše
mjeńša
mjezsobny
mjezow
mjenu
miny
ministerstwom
metrow,
memorandum
mejemjetanju
meint
medalje
lubosćinske
lubješe,
lokalnych
lochka
lisćikow
leću
leben,
křižerskim
křižej
künstlerischen
kóždeježkuli
kwintet
kultus
kubłany
kruchow
kreatiwny
kopije
konsekwencu
koncentraciskich
komunikaciji
komunikacija
komunam
kompleksne
kofejom
knize,
kmany,
klóšterske
klóšterku
klawěrnym
klasikarja
keluch
kelkož
kašubskeho
kamjenjom
jězorom
ju,
jeja
jednorymi
jednoreho
jandźelow
jandźeljo
italski
inwesticijow
interessiert
instrumentalisća
iniciatiwje
ilegalnje
hörte
hórskich
hólcami
hódnotach
hrajki
hra,
hosćencow
hospozy
hospodar
hobersku
hladamy
historisch
hinten
hidy
herrschte
heraus,
gymnaziast
gymnazialneho
gewählt
gesetzlichen
geplante
gepflegt
geh
gefunden
funkcijow
freie
francoskeje
folgt
finanziell
financna
fararjow,
faktami
ewige
etapy
essen
erweitert
engagieren
emocije
ekumeny
eins
dźěłarnički
dźědom
dźiwnje
dźiwne
dźiwał,
dźiwadźelenje
dźiwachu,
dźaknej
dypkownje
drogow
drama
dotalnu
dortige
dorozumjenju
dorosćeneho
dopokazow
dokumentacija
dojedna
dobyła
dobyćerske
dobra,
dno
dna
diskusija,
diferency
di
demokraća
demokratisce
debaty
dawkowe
dawaše
dam
dagegen
cyrkwinej
chětře
chude
chorownja
choreho
błótowskich
błóta
brašku
brauchst
braniborskeje
bołmončku
bliskeje
blečk
bitwy
bitwje
biografije
bibliografija
beziehen
betroffenen
bamžowski
awtorske
antiserbske
aktualnje
aktualna
akceptować,
akceptować
abatisy
Zrowastanjeneho
Zmeškala
Zeleny
Wódry
Wuješa
Wrotar
Wotrowa,
Wodowych
Wobšěrne
Wobsteji
Wjelkowa
Wjelećin
Wittenbergu
Weiß
Wecker
Website
Waršawskeho
Waren
Wand
Vorfahren
Viel
Vereinigung
Untersuchungen
Umfrage
Umfeld
Twórba
Twarski
Trotzdem
Trofimowič
Terezija
Teiche
Tebje
Tamni
Tajkich
T
Słowakskeje,
Słodenk
Stufe
Studien
Strukturwandels
Staatsministeriums
Spisow
Solche
Slepo,
Slepjansku
Skutkowanje
Schulen,
Schuld
Schuhe
Sandra
Sand
SZŠ
SED,
Róžeńčansku
Redewendungen
Ralbičanskich
Radworčan
Rachlowje
Rachel
Přehlad
Pětša
Pólskeho
Protest
Poznanju
Postawa
Poslednjej
Pferde
Pawlik
Pančičenjo
Norberta
Njeličomne
Njedźela
Niemand
Neu
Netzwerk
Nedom
Nazymske
Naspomnić
Najrjeńše
Městopředsyda
Mozaik
Mnichowski
Mjechelic
Misereor
Ministerstwa
Michałska
Maßnahmen,
Markowa
Marijinu
Mandźelskaj
Mandźelska
Malešec
Lipšćanskim
Linke
Lilija
Leo
Landeshauptstadt
Kěrluše
Kulowom
Kuchen
Kubje
Krupce
Kraftwerk
Komm
Kocha,
Klimaschutz
Klemens
Kinder-
Kašubojo
Kannst
Kandidat
Joschka
Jiří
Jana,
Internationalen
I,
Hłownej
Hosćićeljo
Hosćićel
Historiske
Hinter
Haushalt
Gymnasien
Gottfrieda
Gegenwart
Gefahr
Gebote
Fällen
Frühling
Friede
Frenclec
France
Financowanje
Fil
Feste
Ermutigung
Dźowka
Dortmund
Domowinu,
Domo-
Docyła
Chrósčanskeho
Choćebuz,
Ch.
Casnik
CDU)
CD,
Buder
Budarjowa,
Budarja,
Braška
Brauchtum
Bratrowstwa,
Bratislavy
Braniborskeje,
Bombardier
Bohom,
Bjesady
Bett
Betlehema
Beteiligten
Begleitung
Antonija
6otych
50lětny
2010/11
1993.
185
125.
01
,,zo
,,Ja
(z.B.
(sk
(6)
"Ze
"Z
"Der
##Je
##5,
##...,
##!
##ška
##är
##y"
##twje
##tra
##tna
##owje
##ona
##nosće
##nica
##me
##m)
##kuli
##kow,
##kami
##kam
##isch
##igen
##haus
##fen
##ent
##eni
##eli
##a",
„We
„Tutón
„Naše
“z
“Handrij
žurnalistami
žiwjenskimi
žadał,
šulerkow
štwórta
Šěrakowa
Šěrak
Šołćic,
Šefredaktor
ławkach
Łazowskim
Łazowskeho
čitarstwo
čitarstwa
čistym
čile
ćetu
östlichen
Übergang
Änderungen
złota
zwoprawdźi
zwjeseli
zwjazuja
zwjazanosći
zweimal
zwadu
zunehmend
zorno
znatych,
změniło
zmysłapołne
zmysła,
zleća
zieht
zdawaše
zběraše
zběhnjenje
załožił,
załožbowych
zaćah
zawěsćene
zawostaja
zarjadowarja
započejo
zapadom
zamóžnosćach
zakituje
zahorichu
zahajenskim
zadźěwkow
zaběrał,
zabjerje
wěstota
wěrje,
wěra,
wěnčk
wěcami
wójnach
wyšnosći
wužiwar
wužiwanych
wušo
wuńdu
wuznamom
wuwoła
wuwinyć
wupłód
wumjetuja
wukonami
wukon,
wuknjacych
wujewi,
wudźěłanje
wudać,
wuchodne
wróćenje
wołanje
wočiwidne,
wozjewjenjach
wotpowědować
wotpadki
wotmołwow
wotmachom
wotewrjenu
wotbłyšć
wosudy
wosobina,
wosebnje
woprawdźitych
wopomnjenskim
wopominali
wopodstatnjenje
wopisanju
wolle
wokomikach
wohnte
wohnjostroj
wodźi
wodźe,
wodźacym
wobwodneho
wobswětlenje
wobstejaca
wobrazam
wobohaći
wobnowi
wobmjezować
wobhladowachu
wliwje
wjesołeho
wjeselohry
wjerškam
wjelelětneho
wjednistwu
wizija
wisaše
wioloncello
winicy
wikowanskeje
widźu,
wiceprezident
wariantach
wabjenja
vorstellen,
vieles
verpflichtet,
verantwortlich
unsern
tłóčachu
tydźenjom
tworićelsce
trěbnosć,
trójnu
trochuja
trjebał
trać,
towaršnostna
tolerjow
tempo
templa
templ
tematisce
tehdomnišeho
tajneje
tajkile
tajkich,
ta,
słyšeše
sčinić,
sćinje
sydle
swěčka
swjećizny
swjećaceho
swinjo
swinje
stupić
studij,
stronskich
stronku
strašny
stejitaj
stawom
stawiznopisa
stawiznisku
statami
stat,
stajenje
stadion
staatliche
spěšnosću
spěchuja
spóznaće
spytał,
spjećowanja
sorbisch-deutsche
snadnej
snadna
slědźi
slědźerjow
slěduje.)
slědowachu
slědowacej
skutkowali,
skutkami
skupinomaj
sku
skicy
skedźbnjeja
skedźbnja,
sewjera
semester
sedmym
schwalenju
runu
ruki,
rozwi
rozrisać,
rozprawjeć,
rozpominanju
rozmołwny
rozkładźe,
rozbuchnjenju
rostlina
rjany,
rjanosći
rjady
rjaduja
reprezentant
rejwansku
reich
regionalnu
regelmäßige
recensiji
reaguje
rada,
přizna
přitomnosće,
přistajenja
přispomnić,
přima
přijomna
přihotowanskeho
přiběraše
přiběracym
přewzaću
přewjedźene
přetwara
přerjadowanje
přeměnjenja
přemysłowe
překwapjeny
předstajejo
předstajachu
přednjesł
předewzaćeljo
předchadnikow
předać
płaćiwy
pěše
pěsku
pózdnjeho
pósłać
pušćenju
ptačkow
prědarja
prózdny
prózdninskich
prózdninski
projekta,
prioritu
prašeja,
prawicarskich
prawach
požohnowanje
poćahujo
powołanjach
posłownje
poswjećeny
postrowom
pospyty,
porjadk
popołdnju,
poměrom
politikarjemi
pokalne
poetow
podłožkow
podtitul
podpěrachu
podawkam
podawiznu
podawanje
podamy
pobychmy
planowana
pjenježnymi
pjenjezydawarjow
pjenjezach
pjekarja
pismikami
pisajo
perspektiwje
partnerskeho
pacienća
p.
operje
oktober
objekty
nět
nutřkowna
nožom
nosom
nochcych
njesteješe
njeparujomne
njejsće
njedawnych
njeboćičkeho
njebjom,
nitka
našimaj
nazyma
nastał,
naspomnjenym
naslědnym
narownym
narodnosćow
napisy
naměrichu
najstaršim
nadźijamy
nabok
młodeju
měło,
měsačnika
měrne
móže,
móšnje
modlitwow
modlenjom
mjenach
mištersce
ministerstwa,
ministerskemu
min.)
metrach
medijowe
materielnu
maršala
machte
lěttysaca
lětow
lětnikach
lěsnym
lěpšej
luźe
lutować
lubuju
lodu
ličbach
liturgiju
literaturow
linija
křidle
kóštach
kwasnu
kwalitatiwnje
kultusowym
kulojtym
kritikarjow
kralowny
kołach
kowar
kostimy
kostet
korjenjam
kopom
kopiju
koordinator
konsequent
konkretnej
koncertowanje
kon-
komorneje
komediju
kombinacija
kolegam
kocor
knježna
knježerstwo,
knježacych
knižki,
kmótra
klubej
klanki
kirchliche
kilometrach
kaznjow
kazni
kategoriji
katedrala
kasetu
kantorka
kantorej
kanclerki
kajkich
ka
jězdźić
jězbow
juristisce
jubilejnych
jubilejnu
jewišćoweho
jewi,
jednotneje
jednotliwje
jednorej
januar
internatom
integracije
instrumentach
instanca
inhaltliche
informatiwny
indiwidualne
individuellen
ihm,
ideologiske
hłubši
humor
hudźbnikami
hrózbne
hrubje
hosćićelow
horće
horceho
holu
hob
hesle
hejtman
hamt
halbe
gymnaziju,
größer
gremije
gramatiku
geschrieben
gelernt
fünften
fronće
financuje
financielnych
feststellen,
fehlt
februarje
etwas,
etnisku
etniskeho
etiske
etapa
energisce
elf
ekskursije
einiger
dźowkow
dźewjećich
dźakowni,
dóstaštaj
dyr
dwěsćě
dwu-
dwanaćich
dušinu
drjewjanu
drasta,
dožiwjenju
dołhosći
dołholětneho
doskónčne
dorostowe
dopomnjenkami
dopis
donětka
dokumenće
dokumentarny
doktorske
dobyćerka
direktny
direkcija
diplomatiske
demokratiski
decernent
decembrje
daše
darunter
dalokich
cyrobu
cyrkwju,
cyrkwički
cuzymi
cm
chłóšćenki
chutnym
chodźa,
chlěb,
charakterizuje
centrale
byś
bytosć
blieben
bleše
bjezporočnje
biskopsku
bibliskeho
besseren
beschlossen
begleiten
bayerskim
basniskeje
bariton
bamžowskeje
awtami
atlasa
atd.)
architekturu
anhand
akće
akcijow
adwentneho
abiturje
a)
Zwostanje
Zwei-
Zoba
Změny
Ziesch
Zdarsy
Zbožo
Zarjadowarjo
ZSST
Wšitkich
Wšelacy
Wóslinku
Wóslinka
Wysokich
Wylem
Wuměnjenja
Wuhotowanje
Wudaće
Wudawaćel
Wočakuja
Worklečan
Worklec,
Wobšěrnje
Wjesne
Wjelečanska
Wilfried
Widźeć
Wašej
Volkmar
Vieh
VII.
Trójce
Telefon
Słowjanow,
Swójby
Stóž
Stawizna
Starosta
Stalina
Spiegel
Smjerdźečan
Smjerdźaca
Sir
Simonis
Serbstwa
Serbiskej
Ser-
Sendung
Schöne
Schäuble
Schreiber
Schily
Róžeńčanski
Róžanta,
Ryćer,
Rusow
Reichtum
Regelung
Redaktor
Rawp,
Rakecach,
Qualifikation
Přistajeni
Próstwa
Präsidium
Połčnica
Politikarjo
Pickel
Pawoła,
Paralelnje
Organisatoren
Ochranowskeje
Němsko-Serbskim
Němsko-
Nó,
Nukom
Nukec
Nowotneho
Njebjelčic,
Nadawki
Młodźinski
Měr
Měnjenja
Mužakowje
Muki,
Minjenu
Minakała
Meister
Meisner
Mehrere
Marijineho
Marija,
Marcus
Madleńka
Lěkar
Lydia
Ludźo,
Lońši
Lourdesu
Linken
Letzten
Lejnart
Landtages
Kölna
Kukowske
Krause,
Krala,
Ketlicach
Kell
Katka
Jung
Juhosłowjanskeje
Jubiläum
Jordana
Jaworkec
Jaromír
Janje
Janek
Jahn
Inga
Ideju
Hórnikečanskim
Hru
Hrjehorjom
Hoßmang
Horjeka
Henkert
Heil
Hannover
Hamburger
Haješ
Göda
Gubinje
Grósa
Gewinnung
Geralda
Frencela
Fischera
Fernsehen
Fabriciusa
Ewangelske
Ewangelscy
Europäische
Erlebnisse
Erinnerung
Empfehlungen
Eduard
Ec
Dźěłowy
Dušan
Druhim
Domowinjanow
Domaški
Dobyće
Dobrošic
Dir
Delnjoserbske
Daran
Chwaćicach
Běłoruskej
Běłeho
Bulanka,
Brězan:
Briefe
Brand
Boršći
Bjeńšowa
Bjarnatej
Berücksichtigung
Beogradźe
Bejmina
Baćoński
Ban
Balko
Bacha,
Arnold
Armee
Archiv
Antonio
Anlage
Angesicht
Akademiji
Adveniat
Adama
44.
340
27lětny
260
1997,
1991.
1937,
1874
1856
1834
1830
134
1,9
0:0
03–59
03–0
-;
,,z
(ale
(Rozhlad
''Serbja
"To
"K
##F
##?”,
##45
##10
##-,
##łu
##łe
##zna
##zeit
##yć
##y-
##ve
##tor
##tne
##rs
##recht
##os
##nskeho
##nemu
##n-
##ll
##kach
##je"
##iskim
##ien
##icht
##i)
##hi
##eju
##dźa
##co
##ch''
##bje
„Čehodla
„Sy
„Naša
“Serbske
“Rěči
“My
“Mamy
žortnje
žiwnosći
žadać
źo
šła
šěrokosći
štwórći
štwórtu
štw
šaće
Šimanec
Łužičanow
Łazowska
čłonku
čłonki
črjódka
čitanjom
čitali
čistu
česća
čerpaše
čarach
čaj
Čěskeho
Čornobóh
Čerwjena
Černik
ćěła,
ćiche
ćahow
Ćeže
Će
übernimmt
übernehmen
überaus
Übersicht
»W
złotych
zymneje
zwyšić,
zwyšenju
zwr
zwjesela,
zwjazkaj
zudem
zranjenjow
znajomosć
změju
zmištrowa
zhromadźiznje,
zetkał
zestajała
zdźěłanje
zbožowni
zašłosću
zańdźene
zańdźe
załožić,
začuwać
začuwam
zawěsćić,
zawěsća
zawrjenja
zawodach
zawjazowace
zasłyša
zastupowachu
zastupjene,
zastupje
zastopnjowanja
zastarać
zapust
započał,
započatkarjow
zamóžnosć
zakónčichmy
zaka
zajimawostkow
zahajena
zabra
wšědnu
wšudźom
wšudźe,
wěrił,
wěka
wědźenju
wědomostnymi
wótčina
wzajomneho
www.team–foerster.de
wužiwał
wužije
wuńdźe,
wučitać
wuznamna
wuwědomić
wuwědomi,
wuwučowanja
wuwił,
wuswobodźić
wuspěšnych
wuspěšni
wurisanje
wurisanja
wuprajenjemi
wunošne
wuchodneho
wubědźowanja,
wubranku
wróćichu
woči,
woznamjeni
wowki,
wotzamknjene
wosadnemu
wosadami
worštu
wopytowarjej
woprawdźiteje
wopokazanu
wokřewjenje
wojowanjach
wojerskim
wohrožena
wodźace
wobswětowe
wobstać,
woborneje
wobmjezuje
wobkedźbuje,
wobdźělenym
wliwow
wjesołym
wjeselić,
wjacy
wične
witali
winowca
wikowarjow
wikow,
weiße
weg
wartet
uniwersitny
ukrainskich
twojeho
turneji
turistiski
turistam
trěbneje
trěbneho
trjechichu
trjebamy,
treningowym
treningowe
traditionelle
towaršnostnu
tomu:
title
tematiskich
tema,
telewizor
technische
take
tajcy,
słódnym
słódke
słyšu
słownikach
słowne
sławne
sylni
swětłowobrazami
swěrne
swjatočnu
swjatkow
swačinje
susodnymi
super
stworjenja
stworjene
studijach
strukturnych
stronka
stron,
stołpje
steji:
steht,
stawiznarja
statusu
starosćemi
staremu
stana
stali,
srjedźa
spěšnu
spěwali,
spóznaješ
spóznaje,
spožčeja
spodobnje
spezifischen
spara
solistami
sobustawstwo
sobuskutkowacymi
sobudźěłaćerki
směry
slěduja
skaza
skawtske
sk
situacije,
serbstwom
serbiski
seminar,
sejmom
sehr,
schow
schodach
schneller
samych,
sadow
sad
rěčnistwa
rěčeše,
rěčespyt
rusce
runinje,
rumpodich
rukow,
ruft
rozšěrjeneje
rozłoži,
rozsudnej
roz-
romskeho
rodźeneje
rjek
reportaže
relativ
reformow
redakcije:
rechtzeitig
recept
pśikład
přitomni,
přistupje
přistajić
přirodna
připrawichu
přiměrjenje
přilubił,
přijěli
přihotujemy
přihotowali,
přichwatało,
přichodnymaj
přećelna
přezjedni
přewrótowym
přespěšnje
přeněmčenje
překupca
přednoški,
předewšěm,
přebywanišća
pěsk
pěc
pólny
puta
publikaciji
psa
prěć,
prědował
prócowali,
präsentieren
prošu,
profesorow
procha
prjedownikow,
priwatnu
prezentacije
premjery
premjernym
predikat
prawosławnych
prawe,
požčonki
połneho
poćahowaše
pozicijach
powšitkownych
poswjećena
postajić,
posrědkuja
posrědkować,
poskićić,
positive
porěčeštaj
porok
porje
pomjenowachu
pokłady
pokiwow
podobnymi
podlěšenju
podawkej
pobrachowachu
plenarnej
pj,
pisomnych
personalna
patriarcha
pastyrja
paski
partnerom
originalny
offenbar
objektiwnje
něčeho
němsko-serbske
nócnym
nowum
nowopřichad
njezměje
njewotwisnosće
njesměł
njeskazane
njerědko
njepraji
njejsym,
njedostatka
niske
nehme
negatiwny
nazhonjenjow,
nawodami
nawjedowace
nastajichu
nastajenjom
naprašowanjow
nanow
namócnje
namjeznych
namjetowane
namakała,
namakanju
nakładnym
najwšelakorišim
najwuznamnišim
najwuznamnišeho
najwjetšeje
naj-
nadobny
nadběhowachu
na,
młynske
młynka
měšnika,
mězniki
měrje,
myslimy
motorskich
morjenja
moralisku
molowanje
molerjej
mloko
mjeńšinowym
mjeńšinowu
mjenuja,
mjenowaneju
mjasa
mentalitu
melodiji
medijowych
martrarja
mandźelskej,
managera
madźarskeje
lěćnych
lět)
lyriske
ludnosće,
lubja
lipy
lipu
ligistej
l996
kóždyžkuli
kóždemu,
kwasna
kwartalu
kwalifikaciju
kulinariske
kubłar
kubler
króna
kroki
krasnosć
krajan
kontinenta
konfirmaciji
koncentrowaše
komunistow
komunistiskeho
komunalnej
kompozicijemi
komplikowany
kombinaciji
kolesowarjow
kolektiwa
klinčeše
kirchlichen
kermuše
kedźbu
kaufen
kapałnicy
kabineta
jězdźidle
julij
juha
jeno,
jendźelšćinu
jej,
jednotnej
jastwach
jasnymi
jandźela
italskich
interpret
internetnu
international
inscenacijow
hłosow,
hudźbnikow,
hrona
hrał,
hrajkanišćo
hrajachmy
hornjoserbska
hordy,
horcoty
holocausta
holcami
hoffen,
hobbyjowej
hnujacy
hinašeje
grafiske
gewinnen
gestrigen
gesetzlich
germanizacije
genauso
gelungen,
geehrte
früheren
fremden
fremde
formalne
filma,
fazu
farje,
fachowje
ewangelskemu
erlernen
erfordert
enger
energija
elan
ekstremnje
dźěłaćerjow,
dźěławosću
dźěłarničce
dźěl,
dźiwich
dźiwadłow
dźiwadle,
dźesaćich
dźen
dźakne
dóstanje,
dypkowu
dypkowej
dušow
dujerskeje
družinach
druge
droht
drastowych
dramy
dožiwjeja
dočasa
dowolnosć,
dowolić,
dowjeze
dorosćenym
dopokazuja
dopokazać
donjebjeswzaća
domchowance
dokładnje,
dobudźe
dnjach,
diskusijny
dirigentstwom
dimensije
deutsch-sorbischen
denken
demonstrowaše
demonstracije
demonstracija
demografiske
dary:
daloka
da-li
cyrkwinscy
cile
chwilce
chutny
christlichen
chorosćow
chila
centrum,
błyšć
bywa,
burska
brjóh
bohow
blakami
bilingualen
bije
biblisku
bewahren
beteiligen
bereit
bemühen
bekamen
begab
basnikej
banty
ausgebaut
atmosfera,
at
arcybiskopstwo
archiwow
ansamblow
ans
anlässlich
alternatiwu
allgemein
alias
aktualneho
akademiju
adwentna
achten
abt
Zwiski
Zielen
Zgorzelecu
Zeugnis
Zdźěrje
Zdźěr
Zbóžnik
Zakonja
ZSRP
Wědomostne
Wunder
Wuměłcy
Wotpowědny
Won
Wochozach
Wjedro
Wirth,
Waršawski
Vorteile
Veränderungen
Vereine,
Verband
Umbau
Trjeba
Toś
Towarstwu
Tow.
Temy
Teller
Tafel
Słowjanskeho
Stuttgarće
Stadionje
Srědki
Sportler
Soldat
Sogar
Sněh
Slědowaše
Skalu
Skala,
Silbermond
Servi
Serbowka,
Schul-
Schritte
Satkula
Samuel
Sami
Salowskeho
Rößler
Roža
Rozestajenja
Rolanda
Roja
Rjelka
Rice
Reinelt,
Regionalverbands
Regiment
Recensent
Ralph
Ralbičanskeho
Radebergu
Pädagogen
Pytanje
Pumpje
Pumpa
Praska
Pokal
Podobny
Plätze
Pirna
Paduši
Opfer
Oficialnje
Ochsen
Obst
Obersorbischen
Nětko,
Nowych
Nowoslicach
Nowemu
Nowakoweje
Njeznaći
Njebych
Niskeje
Nasta
N
Młynkoweje
Měta
Móžnosće
Moos
Moller
Moderne
Miłoćicach
Mike
Meškanka
Methode
Maśica
Marije,
Marienstern
Mali
Lutherowym
Lust
Luisa
Lubijskej
Lubi
Lohsa
Literarne
Lipiča
Leser
Lehre
Lanštjók
Lajnerta
LaSuB
Křižanec
Käse
Kurse
Kritik
Kristina
Krawža,
Krawcowy
Krakowski
Krajan
Kosyka
Kosyk
Kommt
Klein
Kindheit
Kilank,
Kiel
Kern
Katja
Katalog
Kapelle
KINA
JěwaMarja
Jäger
Južna
Journalisten
Jakubec
Italskeje,
Iniciator
Information
Industrie
In-
Hort
Hornje
Hornich
Hodźijskeho
Herzger
Hermenau
Hermanna
Herberta
Handrijom
Guten
Größe
Gegen
Gebietes
Gebet
Gartena
Fuchs
Freudenberg
Fremdsprache
Franziskus
Floriana
Flath
Fast
Falle
Existenz
Erwachsene
Elemente
El
Eksperća
Dźěławosć
Dźensa,
Dresdner
Dresden-Meißen
Dołhi
Dołhe
Dorotheje
Donatec,
Dokumente
Dochody
Diener
Danojo
DJ
DFB
Chróšćanske
Chrystusej
Charlesa
Chancen
Bětka
Büchern
Böhm
Bój
Bärwalder
Bukec,
Budyšanow
Budarjowa:
Buchhandlung
Brna
Braniborske
Bolesław
Bildung,
Biedenkopf
Besonderheit
Besitz
Bedürfnisse
Baršću
Bart-Ćišinski,
Autorin
Autohaus
Ausgangspunkt
Arsa
Arndt
Arbeitsrichtlinien
Anregungen
Anleitung
Anke
Angelo
Alfreda
Akzeptanz
Aktionen
Akcija
Abs.
A-
8,
64.
40tych
25lětny
19lětny
1997.
1841
1815
1813
126
11.30
11.20
102
1000.
1,8
(„
(kiž
(Prašał
(Mk
(EDV
(Budyšin
''na
"zo
##30
##ža
##źi
##Š
##ński
##uf
##owali
##ow"
##od
##nsku
##nden
##lne
##jährige
##jow,
##je)
##ierung
##ichu
##ice
##ht
##ens
##cher
##cach
##ata
##amy
##ali
##aca
„po
„do
„Wona
„Tute
„Słowo
„Su
„Jednoće“
„Dźensa
“Štóž
žortny
žohnowany
žohnowanja
železa
žanra
žani
Žónska
Žurla
Židowje
źěła
šła,
šěrjenju
šulerski
štomami
šofera
šestym
šefow
Šulska
Škit
Šewčik
Šenkarjowa
łopjenach
Łužisku
Łazku
Ł
čujach
čitamy:
česću
čestnohamtskeho
čerstwym
časami
č.
Časy
ćmy
ćišćerske
ćišćana
ćisny
ćekny
złych
złožujo
złožił
złoteje
zła
zymsku
zwyša
zwoprawdźenja
zwona
zwisowaše
zranjenje
znowazałoženju
znowazałoženja
zhubjenych
zhubjeny
zhubił,
zhotowichu
zešło
zeznał,
zetkawamy
zemrěła
zelo
zelene
zdachu
zběrkach
zbóžnoprajenju
załožićel
zasłužene
zasydlenje
zastatk
zasadnych
zapřahow
zapodate
zapadnu
zamóženja
zamórskich
zajimować
zadnje
zaběrali
zaběraja,
z.t.,
wěsći,
wěrywuznaće
wěcna
wčerawši
wótru
wyšnosću
wuznamnymi
wuznamjenichu
wuzběhuje,
wuwiwaja
wusyłanjow
wuswjećeny
wustojny
wuspěchow
wurjadna
wuraza
wuměłču
wuměłcaj
wuměnkarjo
wuměnka
wumrě
wukubłanych
wukubłanskeho
wuknu,
wujasnjenja
wuhrachu
wuhotujetej
wuhlowej
wudobychu
wuchadźacy
wubranka
woznamjenjeja
wowcyne
wotstronić,
wotrězkow
wotpołoži
wotpočinkej
wotpowědnik
wotličenje
woteda
wotběha
wotbagrowanych
wostała,
wosobinami
wosmy
wosebitosćach
wopřijimuje
wopušćił
wopušći,
wopomnjenska
wopisanja
wopačnej
wokřewjace
wojowar
wojakami
wohnjowu
wobšěrniše
wobsedźa
wobsadźenju
wobohaća
wobmyslenjow
wobmyslenja,
wobmjezowana
wobknježeše
wobkedźbowaše
wobjednanje
wobeńć
wobdźělił,
wobdźěleny
wobchowali
wobchodow
wječora,
wjetšimi
wjeski,
wjeselił,
wjerškach
wjedźenju
wissenschaftlicher
widźo
weltweit
wažnosći
wažneje
verwirklicht
v.
unsre
uniwersitnej
uniwersitach
unije,
umfassend
tysacow
twornje
twarjachu
troje
trenuje
trajacu
trajaca
towaršnostneje
tolerancy
teils
techniki,
tarifowe
taflow
słyšeli
słowakski
słowakske
sło-
sćěhami
synodalojo
sylniša
sylneje
swěći
swědki
swini
sudniskich
sud
ständigen
strategije
stołom
steješe,
staršiskeje
starosćiwje
starał,
stajili
srjedźišću,
spěwanski
spěwamy
spěwam
spěchowanskim
sprawnym
spožčenje
sponsor
spomóžneho
spokojić
spisowaćelej
spadny
sorbischen/wendischen
sopranistka
sonow
socialnymi
socialistiska
sobuželnosć
sobustawam
slubi,
składnosće,
skupinski
skupinow,
skrući
skotu
skorži
skedźbnił,
ska
sicher,
serbskorěčnym
seminaru
sektora
sekretariaće
schriftlich
schorje
schlafen
sakramenty
sakralne
sagte,
rěčało
rěkać:
ruscy
rozmyslowanje
rozmołwjeć,
rozhłosu,
rowno
rjadować
republiki,
rejowanska
referenća
recepciji
ratarstwje,
radiju
přizjewili,
přiwzał
přiwzali
přiwisnik
přisamom
připosłuchar
přinošk,
přihladowarja
přichada
přiběraca
přeńdźenja
přełožowanje
přełožkom
přewodźał
přewoda
přewjedźenja
přetworjenje
přesłyšowanju
přesłapjeny
přeswědčenje,
přestrjeń
přestawkach
přesta
přeradźa,
přeprosyłoj
přepodał
přepodadźa
přednjesene
předdźěła
pěstowarkow
pytnył,
pućowachmy
putnikuja
prěnjowoprawjenske
prěnjorjadnje
prěnje,
prócowali
protykow
prosty
producent
pro-
privaten
prikład
prašachu,
prajach,
powołujo
powołanje,
powitanju
potajnstwa
postronk
postarać,
posrědkowaše
poskićowachu
posedźenjow
porst
porjadnu
poražki
poradźowarka
poměru
poměram
pomjenować
pomjenowany
pomhała
polěpšenja
politiskemu
politikarjow,
podšmórnje
podpismo
podhlad,
planowanskeho
planen
plahuja
pjecy
pilnosću
pflegt
pedagogiskich
pastoralku
originelne
originalnym
organizował,
organizatoriski
olympiske
někotare
nötige
nuzuje
nutrnosću
nu
nowowudaće
noworjadowanju
nowinskej
njezbožownje
njerěči
njemóžne
njemóžeše,
njekryja
njedźelnych
njedowoli
nimaš
nimamy,
našli,
načolnikom
načolni
načolnej
načolne
nazhonja
nazhonić
nawuknychu
nastać,
nastawachu
narěču
narodnostnym
napřećiwnym
nanojo
naměstnika
namołwje
najwažnišim
najwažniše,
najsylniši
najsylniša
najrjeńšu
nadawkow,
měšnik,
městnam
měra,
mějićelka
mějachmoj
móžnymi
muttersprachlichen
mustwam
murjow
morja,
molerske
mnohotnosć
mjeńšimi
metropolit
mejskim
medicinske
maćizna
machst
lětadłow
lěkarka
lěhwowym
lyriski
ludowěda
lubuja
lubješe
lońšeje
liturgiji
listowanje
listow,
linken
liberalnych
leća
letztes
legenda
legen
le
křćeńca
křižerjow,
křesćanstwu
kěrlušow,
kěrlušej
kwas''
kuždy
kuratorija
kupc
kumštnym
kultusowy
kuchar
kubłanska
kružku
kruwy
kročachu
kreji
kralowskeho
krajinu,
koža
korčmar
korčma
koparki
kontakće
konsens
konkretnu
konflikće
komunikaciju
komponisća
komornym
kokota
knježk
knježerstwowym
knjejstwom
klima
kleineren
klein
klasiskich
kemšam
kajkimi
kaceće
jězoriny
jěchaše
jěchanju
jónkrótnosć
jubilarce
jomu
jima
jednotnu
jednotliwcow,
jednanjom
jednanja,
inteligency,
inhaltlichen
informatiwne
ilustracijow
ihnen,
hóstnym
hórnistwo
hólčeca
hudźbje,
hrodźe,
hrajersce
hosći:
horstki
hornjołužiskeje
hornjoserbšćinje
hornjoserbsku
hornca
horami
hona
holiča
hoberskim
hoberska
hladam
helfe
hatten,
haješe
gründete
grafikow
grafikarka
generaciju,
geachtet
fotografować
folgten
firmy,
fašistiskeje
etniska
entschieden
ekumeniskej
ekskursija
einzigen
einschließlich
dźěštaj
dźěłała,
dźěłamy
dźěćatko
dźěda,
dyrbještej
dyrbi,
dwójnikow
druheho,
drjewjana
dramu
dramatisce
dožiwiła,
dožiwiła
dosahace
dominowachu
doktor
dodźerženje
docpěwa
docpěli
dobył,
dobytka
diskutuje
diskusije,
diasporje
dialekt
derzeitigen
derzeitige
denke,
date,
darfst
danskeho
dalewobstaće
dahin
citowaše
chłóšćenku
chěžku
chěžki
chěžkar
chěži
chroniku
chorym
całty
běłeho
böse
bywša
bydlić
bydli,
bydla,
bratromaj
bratram
boli,
bojeć,
bojach
blaku
bjezewšeho
bjezdźěłni
bewahrt
beschäftigten
begibt
baziliku
basnikow,
b)
atomowe
artikle
arbeite
aplawsom
anerkannten
amtěrowacy
ameriskej
allgemeinen
allerdings
agrarne
absolwenća
Zjawny
Zastupjer
Započało
XX.
Wěža
Wědomostnicy
Wědomje
Wähler
Wužiwanje
Wusud
Wowčerk
Worklečanske
Woko
Wojerowčenjo
Wohin
Wobsedźer
Wob
Wjerbnje
Wjacława
Wiktor
Wiesen
Werte
Weroniki
Wendland
Weiterbildung
Weg,
Weclicha
Vettraino
Veröffentlichung
Verordnung
Verfahren
Veranstalter
Unterschiede
Ungeachtet
Třělnišću
Tón,
Treue
Toten
Testament
Ten
Słowjanam
Sćěh
Szewczyk
Synoda
Swjatočne
Stübner
Strom
Stationen
Sportowe
Spieler
Sorge
Smě
Situationen
Signe
Sieger
Sewjerna
Sernjany
Serbskeje''
Serbaj
Seil
Schäden
Scheune
Schafe
Schaden
Saul
Sanierung
Samozrozumliwje
Sakska,
SKC
Räume
Row
Rostok
Romje,
Rolfa
Rječkec
Revolution
Repro:
Rejzka
Reinharda
Ralbičanska
Radwor,
Rad
Připóznaće
Předstaja
Pětrskeje
Pücklerowy
Procesion
Pozdźišo,
Pohling
Piotr
Picnju
Paška,
Nutřkowne
Nr.
Nowaka-
Njetrjebamy
Njeposrědnje
Niedersorbische
Nastawk
Najwyši
Najwjetšu
Nadel
NS-
Měšćanski
Münsteru
Müllera
Móžne
Mužakowa
Moskowskeho
Mjena
Mjedwjedew
Minakał
Mikławšu
Meißen
Maćičny
Markej
Marhaty
Margot
Maksimiliana
Mahra
MDR,
Löbau
Lubnjowa
Literatura
Litawskej
Lipšćanskeje
Leyen
Lenki
Leitartikels
Le
Laden
Křesćanske
Kónčny
Kušk
Kulturraum
Kulturinformation
Kulowčenjo
Kukow
Krawčik
Kraut
Koćiny
Korutanskej
Koncept
Klawdija
Kirchgemeinde
Kiliana,
Kielu
Kapler
Kamjentnym
Kamjenc,
Kahn
Juršikowa
Jurkowa
Juliana
Joachimej
Jelenjeje
Janšojcach
Janak
Jakuba,
Italskej,
Irskej
Internationale
Iltgen
Häuser
Hospodarske
Hodźijska
Henryk
Helena
Hawštyn
Hanskeho
Handrik,
Hagen
Gustav
Gunter
Grundstück
Grundgesetz
Gesundheit
Geduld
Gajewski
Fürchte
Frucht
Freiburgski
Frankfurta
Frahnow
Fortbildungen
Flüchtlinge
Festigung
Ferien
Etwa
Erlebnis
Erfurt
Erfolge
Entwicklungen
Einheit
Edith
Dźěćo
Domš
Domowina-Vorsitzende
Deutsch-Sorbische
Delegacija
Darstellung
Daloko
Computer
Chrystusa,
Chołmcu,
Choćebuzom
Centralna
Carsten
Buša
Bur
Budarjowej
Bryccyneje
Braniborskej,
Božeje,
Bołharskej
Bewusstsein
Bewirtschaftung
Betlehemje
Belgiskej
Beatu
Bartskej
Bartko
Barack
Balkanje
Awto
Autobahn
Aussage
Augusta
Atola
Ablauf
Abitur
5:0
5,
360
3,5
2:3
280
2021
2005”
2000,
1996,
1990ych
1956,
1946,
158
155
116
103
05
,.
,,na
(Čitajće
(prědku)
(pozdźišo
(Jurij
(EKD)
(,,
("
''Wo
##90
##7,
##1,
##šćo
##ěr
##ój
##y”
##yn
##uch
##tag
##schaft
##rnje
##owany
##ok
##oju
##ni,
##nc
##mne
##kowa
##kel
##je“
##jemy
##iskeje
##ier
##heit
##hdy
##emi,
##dom
##cka
##cha
##be
##anja
„Pro
„Nam
„Dźěći
„Bohu
“Tež
“Tak
“Ja
žerdź
železniski
žarowacych
Žuricach
Židami
šěsnaće
šulerjemi,
štwórćinu
štwórteje
štučkow
šli,
škitneho
škitać,
šat
Šěrachowje
Šwejda
Šenk
Łužiskimi
Łušćanski,
Łuty
Łemkojo
čłowječim
čuješ
čołmikowanje
čemu
časach,
Čłonka
Časopisu
ćopłej
ćišćerskich
ćerpješe
zwěsćiło,
zwuraznjenja
zwurazni:
zwonjenje
zwjeršnje
zwjazany,
zusätzlichen
zrudna
zrozumjenjom
znowanatwar
zniženju
znazornja
znajach
zmištrować
zjima
zjednoći
zjawnosći,
zhonił
zetkał,
zetkanjom
zemrětym
zdobył
zbožu
zbožownym
załoženeje
začuwać,
zaćišćow
zawjazk
zasłužbne
zastupić
zasadźichu
zaruči
zapřijeću
zapřahami
zapołožene
započeli,
zapisał
zanurić
zaměstnjeny
zalěze
zaklinčeć
zakazachu
zajězda
zajimowaše,
zaja
zahorjenych
zaběrała
wšykno
wěrnosću
wěrnosć,
wědomostnikami
wčerawšich
wólbami
wódnym
wählen
wzajomnych
wych
wušparanja
wučbu,
wuwabja
wuprajili,
wuknjenja
wuhotowaše
wuhotować,
wuhotowanych
wudawaćelske
wuchować,
wuchodźowanju
wuchadźeć
wubědźowanjom
wožiwi
woza
wotpočinka
wotpowědneje
wotnožce
wotmołwami
wotkrychu
wotewrjenjom
woswjeća
wostanjemy
wospjetuje
wosobinska
wosebite,
wopyta,
wopokazuje
wopisowanja
wopisma
wopačnych
wokrjesnemu
wobžaruje
wobydlerskim
wobydlerskeho
wobsedźeše
wobrazowu
wobrazowa
wobohaćeja
wobhladuju
wobara
wječory
wjesołeje
wjesnjanow,
wjesnjanam
wjeselachu
wjedźenja
wje
witany
wiolinu
widmen
wažnje
wart
wabjenski
vorliegende
verfügt
unterstützen,
uniwersitow
ukrainski
tłóči
tykanca
tworni
tworićelskich
tudyšeje
tuchwilnu
triumf
trajachu
tradicionelnych
towarš
towarstwowych
tezow
teza
texaskich
terminje
teologow
tekstowe
tačeli
tachantstwo
słucha
słomu
swětowemu
swěrneho
swědomju
swobodnu
swo-
swjedźenju,
swjedźenjach,
sudźić,
substanca
stólcy
stwach
stroweho
stronskeje
stronskej
strašnym
stoła
stopow
stopnjowanje
stejaceho
stawaja
starskeho
starosta
starodawne
starobiskop
starb
stajnje,
stajeć
srj
spěwarjam
spěwanskim
spóznaje
spricht:
sportej
spomóženju
spjatym
spisowaćelemi
spezielle
solowy
solidne
solidarita
socializm
sobušulerjow
slědźenja,
składowanje
skónčichu
skutkowali
skrótšenjow
skromnosći
sfery
serbstwo,
serbiskeho
schläft
schaffen
sangen
samym,
sah,
rěkow
rěkach
rědko
rynka
rukopisne
rozwiću
rozprawjeć
rozprawjał
rozmołwja
rowow
rowjenkow
rote
rosće,
rosć
rjeńše
riesige
reichen
regionje,
reformacija
redukowanje
recensiju
recensije
realita
ratarja
radikalnje
radija
přiłoze
přiłohi
přičin,
přirodu,
přirodneho
přikleska
přijomnej
přihotował,
přihotowani
přidruža
přećelskich
přewzali
přewostajić
přetrjebarjow
přesydlenju
přesahowace
přerězk
přeprosyli,
přepodaštaj
přepodaćom
přenjesć
předźěłanju
předsydźa
předstajił,
předstaješe
předmjetom
předmjetach
předewzaćelskich
předchadźaceho
płonina
płachtu
póčnje
póstniski
pućowansku
pućowachu
putnikow,
prěnja,
prědar,
prócowanja,
pruskim
programje,
proch
problemom
princesna
preč,
prezes
prelata
prawosć
prawopisa
prawiznika
prawidłownych
prajo:
prajachu,
połneje
počach
pozitiwneho
pozadki
powyšenje
potłóčowanje
potajnstwo,
posudki
postupy
postawy,
poradźowanje
poradźenu
popłatka
pomocna
politice,
pokazali
pohonjowaše
poetiskich
podpěrować
podpisane
podhladneho
podawizny
pochwali
pobrachuje,
pjeć,
pjatej
[...]
